{
  "version": "1.0",
  "truncation": null,
  "padding": null,
  "added_tokens": [
    {
      "id": 0,
      "content": "<|endoftext|>",
      "single_word": false,
      "lstrip": false,
      "rstrip": false,
      "normalized": false,
      "special": true
    },
    {
      "id": 1,
      "content": "<|UNKNOWN|>",
      "single_word": false,
      "lstrip": false,
      "rstrip": false,
      "normalized": false,
      "special": true
    },
    {
      "id": 2,
      "content": "<|START|>",
      "single_word": false,
      "lstrip": false,
      "rstrip": false,
      "normalized": false,
      "special": true
    },
    {
      "id": 3,
      "content": "<|END|>",
      "single_word": false,
      "lstrip": false,
      "rstrip": false,
      "normalized": false,
      "special": true
    }
  ],
  "normalizer": null,
  "pre_tokenizer": {
    "type": "ByteLevel",
    "add_prefix_space": true,
    "trim_offsets": true,
    "use_regex": true
  },
  "post_processor": {
    "type": "TemplateProcessing",
    "single": [
      {
        "SpecialToken": {
          "id": "<|START|>",
          "type_id": 0
        }
      },
      {
        "Sequence": {
          "id": "A",
          "type_id": 0
        }
      },
      {
        "SpecialToken": {
          "id": "<|END|>",
          "type_id": 0
        }
      }
    ],
    "pair": [
      {
        "Sequence": {
          "id": "A",
          "type_id": 0
        }
      },
      {
        "Sequence": {
          "id": "B",
          "type_id": 1
        }
      }
    ],
    "special_tokens": {
      "<|END|>": {
        "id": "<|END|>",
        "ids": [3],
        "tokens": ["<|END|>"]
      },
      "<|START|>": {
        "id": "<|START|>",
        "ids": [2],
        "tokens": ["<|START|>"]
      }
    }
  },
  "decoder": {
    "type": "ByteLevel",
    "add_prefix_space": true,
    "trim_offsets": true,
    "use_regex": true
  },
  "model": {
    "type": "BPE",
    "dropout": null,
    "unk_token": "<|UNKNOWN|>",
    "continuing_subword_prefix": null,
    "end_of_word_suffix": null,
    "fuse_unk": false,
    "byte_fallback": false,
    "ignore_merges": false,
    "vocab": {
      "<|endoftext|>": 0,
      "<|UNKNOWN|>": 1,
      "<|START|>": 2,
      "<|END|>": 3,
      "!": 4,
      "\"": 5,
      "#": 6,
      "$": 7,
      "%": 8,
      "&": 9,
      "'": 10,
      "(": 11,
      ")": 12,
      "*": 13,
      "+": 14,
      ",": 15,
      "-": 16,
      ".": 17,
      "/": 18,
      "0": 19,
      "1": 20,
      "2": 21,
      "3": 22,
      "4": 23,
      "5": 24,
      "6": 25,
      "7": 26,
      "8": 27,
      "9": 28,
      ":": 29,
      ";": 30,
      "<": 31,
      "=": 32,
      ">": 33,
      "?": 34,
      "@": 35,
      "A": 36,
      "B": 37,
      "C": 38,
      "D": 39,
      "E": 40,
      "F": 41,
      "G": 42,
      "H": 43,
      "I": 44,
      "J": 45,
      "K": 46,
      "L": 47,
      "M": 48,
      "N": 49,
      "O": 50,
      "P": 51,
      "Q": 52,
      "R": 53,
      "S": 54,
      "T": 55,
      "U": 56,
      "V": 57,
      "W": 58,
      "X": 59,
      "Y": 60,
      "Z": 61,
      "[": 62,
      "\\": 63,
      "]": 64,
      "^": 65,
      "_": 66,
      "`": 67,
      "a": 68,
      "b": 69,
      "c": 70,
      "d": 71,
      "e": 72,
      "f": 73,
      "g": 74,
      "h": 75,
      "i": 76,
      "j": 77,
      "k": 78,
      "l": 79,
      "m": 80,
      "n": 81,
      "o": 82,
      "p": 83,
      "q": 84,
      "r": 85,
      "s": 86,
      "t": 87,
      "u": 88,
      "v": 89,
      "w": 90,
      "x": 91,
      "y": 92,
      "z": 93,
      "|": 94,
      "}": 95,
      "~": 96,
      "¡": 97,
      "¢": 98,
      "£": 99,
      "¤": 100,
      "¥": 101,
      "¦": 102,
      "§": 103,
      "¨": 104,
      "©": 105,
      "ª": 106,
      "«": 107,
      "¬": 108,
      "®": 109,
      "¯": 110,
      "°": 111,
      "±": 112,
      "²": 113,
      "³": 114,
      "´": 115,
      "µ": 116,
      "¶": 117,
      "·": 118,
      "¸": 119,
      "¹": 120,
      "º": 121,
      "»": 122,
      "¼": 123,
      "½": 124,
      "¾": 125,
      "¿": 126,
      "Â": 127,
      "Ã": 128,
      "Ä": 129,
      "Å": 130,
      "Æ": 131,
      "Ç": 132,
      "È": 133,
      "É": 134,
      "Ê": 135,
      "Ë": 136,
      "Ì": 137,
      "Í": 138,
      "Î": 139,
      "Ï": 140,
      "Ð": 141,
      "Ñ": 142,
      "Ò": 143,
      "Ó": 144,
      "Ô": 145,
      "Õ": 146,
      "Ö": 147,
      "×": 148,
      "Ø": 149,
      "Ù": 150,
      "Ú": 151,
      "Û": 152,
      "Ü": 153,
      "Ý": 154,
      "Þ": 155,
      "ß": 156,
      "à": 157,
      "á": 158,
      "â": 159,
      "ã": 160,
      "ä": 161,
      "å": 162,
      "æ": 163,
      "ç": 164,
      "è": 165,
      "é": 166,
      "ê": 167,
      "ë": 168,
      "ì": 169,
      "í": 170,
      "î": 171,
      "ï": 172,
      "ð": 173,
      "ñ": 174,
      "ò": 175,
      "ó": 176,
      "ô": 177,
      "Ā": 178,
      "ā": 179,
      "Ă": 180,
      "ă": 181,
      "Ą": 182,
      "ą": 183,
      "Ć": 184,
      "ć": 185,
      "Ĉ": 186,
      "ĉ": 187,
      "Ċ": 188,
      "Ď": 189,
      "ď": 190,
      "Đ": 191,
      "đ": 192,
      "Ē": 193,
      "ē": 194,
      "Ĕ": 195,
      "ĕ": 196,
      "Ė": 197,
      "ė": 198,
      "Ę": 199,
      "ę": 200,
      "Ě": 201,
      "ě": 202,
      "ğ": 203,
      "Ġ": 204,
      "ġ": 205,
      "Ģ": 206,
      "ģ": 207,
      "Ĥ": 208,
      "ĥ": 209,
      "Ħ": 210,
      "ħ": 211,
      "Ĩ": 212,
      "ĩ": 213,
      "Ī": 214,
      "ī": 215,
      "Ĭ": 216,
      "ĭ": 217,
      "Į": 218,
      "į": 219,
      "İ": 220,
      "ı": 221,
      "Ĳ": 222,
      "ĳ": 223,
      "Ĵ": 224,
      "ĵ": 225,
      "Ķ": 226,
      "ķ": 227,
      "ĸ": 228,
      "Ĺ": 229,
      "ĺ": 230,
      "Ļ": 231,
      "ļ": 232,
      "Ľ": 233,
      "ľ": 234,
      "Ŀ": 235,
      "ŀ": 236,
      "Ł": 237,
      "ł": 238,
      "Ń": 239,
      "er": 240,
      "ie": 241,
      "an": 242,
      "in": 243,
      "en": 244,
      "Ġd": 245,
      "Ġt": 246,
      "Ġo": 247,
      "Ġs": 248,
      "el": 249,
      "Ġv": 250,
      "Ġw": 251,
      "is": 252,
      "at": 253,
      "he": 254,
      "ar": 255,
      "Ġb": 256,
      "or": 257,
      "Ġdie": 258,
      "es": 259,
      "Ġa": 260,
      "Ġm": 261,
      "Ġn": 262,
      "on": 263,
      "it": 264,
      "Ġg": 265,
      "Ġk": 266,
      "le": 267,
      "Ġh": 268,
      "al": 269,
      "ing": 270,
      "et": 271,
      "Ġin": 272,
      "as": 273,
      "ed": 274,
      "Ġen": 275,
      "and": 276,
      "Ġp": 277,
      "ek": 278,
      "ik": 279,
      "ou": 280,
      "om": 281,
      "Ġis": 282,
      "aar": 283,
      "Ġvan": 284,
      "ig": 285,
      "Ġthe": 286,
      "te": 287,
      "Ġu": 288,
      "ak": 289,
      "re": 290,
      "ers": 291,
      "ĠS": 292,
      "Ġl": 293,
      "de": 294,
      "Ġe": 295,
      "am": 296,
      "ul": 297,
      "Ġf": 298,
      "ro": 299,
      "Ġhe": 300,
      "ol": 301,
      "âĢ": 302,
      "Ġon": 303,
      "il": 304,
      "Ġof": 305,
      "ur": 306,
      "se": 307,
      "Ġte": 308,
      "ĠA": 309,
      "ĠD": 310,
      "Ġhet": 311,
      "Ġto": 312,
      "ir": 313,
      "Ġc": 314,
      "ĠM": 315,
      "ag": 316,
      "Ġnie": 317,
      "id": 318,
      "Ġge": 319,
      "Ġ'": 320,
      "ok": 321,
      "st": 322,
      "ic": 323,
      "Ġj": 324,
      "Ġand": 325,
      "we": 326,
      "oo": 327,
      "Ġver": 328,
      "un": 329,
      "Ġom": 330,
      "ĠT": 331,
      "Ġwat": 332,
      "ra": 333,
      "Ġ1": 334,
      "ĠB": 335,
      "ĠH": 336,
      "Ġop": 337,
      "us": 338,
      "oor": 339,
      "ĠâĢ": 340,
      "ion": 341,
      "ĠC": 342,
      "ot": 343,
      "ad": 344,
      "ang": 345,
      "ent": 346,
      "Ġ2": 347,
      "Ġbe": 348,
      "im": 349,
      "Ġst": 350,
      "ĠP": 351,
      "em": 352,
      "eer": 353,
      "ĠI": 354,
      "ut": 355,
      "ap": 356,
      "Ġas": 357,
      "Ġr": 358,
      "ĠG": 359,
      "der": 360,
      "ĠE": 361,
      "ter": 362,
      "Ġ(": 363,
      "Ġse": 364,
      "ies": 365,
      "Ġle": 366,
      "ĠN": 367,
      "Ġvir": 368,
      "ab": 369,
      "Ġmet": 370,
      "ho": 371,
      "um": 372,
      "ord": 373,
      "Ġwas": 374,
      "ay": 375,
      "lik": 376,
      "ier": 377,
      "os": 378,
      "hi": 379,
      "ĠK": 380,
      "ĠL": 381,
      "ele": 382,
      "ĠO": 383,
      "ke": 384,
      "ĠW": 385,
      "Ġre": 386,
      "Ġal": 387,
      "Ġy": 388,
      "ĠR": 389,
      "Ġdit": 390,
      "Ġde": 391,
      "Ġaan": 392,
      "ens": 393,
      "est": 394,
      "ĠJ": 395,
      "la": 396,
      "ry": 397,
      "uk": 398,
      "ge": 399,
      "op": 400,
      "ĠV": 401,
      "aan": 402,
      "ĠF": 403,
      "od": 404,
      "Ġby": 405,
      "Ġkan": 406,
      "ub": 407,
      "ien": 408,
      "Ġ20": 409,
      "Ġword": 410,
      "iv": 411,
      "oe": 412,
      "Ġdat": 413,
      "og": 414,
      "Ġhul": 415,
      "ly": 416,
      "ant": 417,
      "wa": 418,
      "Ġ\"": 419,
      "ch": 420,
      "Ġwe": 421,
      "Ġons": 422,
      "erk": 423,
      "Ġmo": 424,
      "Ġth": 425,
      "ct": 426,
      "Ġng": 427,
      "ere": 428,
      "Ġsy": 429,
      "th": 430,
      "Ġi": 431,
      "Ġuit": 432,
      "Ġoor": 433,
      "ind": 434,
      "Ãª": 435,
      "Ġek": 436,
      "Ġfor": 437,
      "Ġuk": 438,
      "ela": 439,
      "ha": 440,
      "Ġna": 441,
      "ru": 442,
      "ist": 443,
      "die": 444,
      "ige": 445,
      "aak": 446,
      "ond": 447,
      "Ġpro": 448,
      "ow": 449,
      "ĠDie": 450,
      "Ġbes": 451,
      "zi": 452,
      "art": 453,
      "Ġba": 454,
      "Ġdaar": 455,
      "ĠU": 456,
      "ings": 457,
      "ĠIn": 458,
      "ver": 459,
      "Ġjy": 460,
      "Ġges": 461,
      "ation": 462,
      "end": 463,
      "Ġsp": 464,
      "Ã«": 465,
      "heid": 466,
      "ce": 467,
      "ith": 468,
      "if": 469,
      "Ġvoor": 470,
      "Ġhulle": 471,
      "are": 472,
      "ip": 473,
      "Ġjou": 474,
      "ende": 475,
      "ia": 476,
      "Ġsk": 477,
      "ĠThe": 478,
      "Ġ19": 479,
      "eng": 480,
      "Ġ-": 481,
      "Ġsal": 482,
      "eld": 483,
      "eg": 484,
      "Ġvers": 485,
      "00": 486,
      "ob": 487,
      "Ġhier": 488,
      "ts": 489,
      "oek": 490,
      "yd": 491,
      "Ġgeb": 492,
      "ye": 493,
      "ug": 494,
      "hl": 495,
      "aat": 496,
      "Ġaf": 497,
      "ep": 498,
      "Ġdeur": 499,
      "Ġ201": 500,
      "sk": 501,
      "ÂŃ": 502,
      "Ġmy": 503,
      "ite": 504,
      "Ġwaar": 505,
      "ess": 506,
      "Ġook": 507,
      "ib": 508,
      "els": 509,
      "ong": 510,
      "ud": 511,
      "ne": 512,
      "ans": 513,
      "ĠâĢĺ": 514,
      "ont": 515,
      "Ġne": 516,
      "ck": 517,
      "iese": 518,
      "ore": 519,
      "Ġgro": 520,
      "rou": 521,
      "elf": 522,
      "oen": 523,
      "ate": 524,
      "Ġmaar": 525,
      "lo": 526,
      "ĠâĢĻ": 527,
      "me": 528,
      "ste": 529,
      "rik": 530,
      "Ġhy": 531,
      "Ġat": 532,
      "ell": 533,
      "uur": 534,
      "Ġab": 535,
      "Ġwith": 536,
      "ve": 537,
      "Ġso": 538,
      "uit": 539,
      "ale": 540,
      "ank": 541,
      "ink": 542,
      "omm": 543,
      "Die": 544,
      "Ġmoet": 545,
      "af": 546,
      "ill": 547,
      "iz": 548,
      "Ġz": 549,
      "be": 550,
      "ort": 551,
      "like": 552,
      "Ġtot": 553,
      "up": 554,
      "Ġkw": 555,
      "oos": 556,
      "elik": 557,
      "oon": 558,
      "Ġan": 559,
      "aal": 560,
      "ard": 561,
      "Ġ3": 562,
      "'s": 563,
      "âĢĿ": 564,
      "Ġhierdie": 565,
      "Ġpr": 566,
      "ber": 567,
      "Ġvol": 568,
      "uis": 569,
      "ys": 570,
      "ĠSt": 571,
      "pe": 572,
      "wer": 573,
      "eks": 574,
      "Ġam": 575,
      "ene": 576,
      "ns": 577,
      "eb": 578,
      "ann": 579,
      "ine": 580,
      "pr": 581,
      "yk": 582,
      "ana": 583,
      "Ġreg": 584,
      "ile": 585,
      "Ġthat": 586,
      "Ġbet": 587,
      "oed": 588,
      "eni": 589,
      "rom": 590,
      "ĠCh": 591,
      "Ġnet": 592,
      "Ġbaie": 593,
      "Ġeen": 594,
      "ense": 595,
      "uthi": 596,
      "oop": 597,
      "oun": 598,
      "of": 599,
      "ala": 600,
      "ast": 601,
      "ide": 602,
      "andel": 603,
      "ĠâĢľ": 604,
      "ity": 605,
      "ĠDit": 606,
      "Ġpl": 607,
      "yn": 608,
      "Ġsa": 609,
      "Ġit": 610,
      "..": 611,
      "Ġun": 612,
      "Ġka": 613,
      "int": 614,
      "ied": 615,
      "Ġwh": 616,
      "za": 617,
      "Ġgev": 618,
      "orm": 619,
      "ath": 620,
      "Ġel": 621,
      "ust": 622,
      "Ġmeer": 623,
      "ood": 624,
      "Ġwees": 625,
      "Ġor": 626,
      "Ġont": 627,
      "ĠâĢĵ": 628,
      "ruik": 629,
      "ief": 630,
      "Ġgaan": 631,
      "Ġonder": 632,
      "Ġme": 633,
      "ane": 634,
      "Ġsoos": 635,
      "Ġho": 636,
      "ame": 637,
      "Ġter": 638,
      "Ġkom": 639,
      "oord": 640,
      "ĠAf": 641,
      "ef": 642,
      "qu": 643,
      "Ġman": 644,
      "isa": 645,
      "all": 646,
      "Ġma": 647,
      "ass": 648,
      "asie": 649,
      "Ġwerk": 650,
      "Ġbeg": 651,
      "Ġku": 652,
      "ĠEn": 653,
      "hou": 654,
      "onder": 655,
      "ac": 656,
      "Ġro": 657,
      "Ġim": 658,
      "ung": 659,
      "uid": 660,
      "our": 661,
      "iek": 662,
      "Ġged": 663,
      "ark": 664,
      "Ġfrom": 665,
      "Ġmaak": 666,
      "igh": 667,
      "ai": 668,
      "Ġ4": 669,
      "Ġander": 670,
      "one": 671,
      "Ġum": 672,
      "Ġtoe": 673,
      "Ġgroot": 674,
      "ona": 675,
      "Ġhoe": 676,
      "Ġbel": 677,
      "ph": 678,
      "ure": 679,
      "iet": 680,
      "Ġgel": 681,
      "Ġgew": 682,
      "ulu": 683,
      "oc": 684,
      ").": 685,
      "Ġhaar": 686,
      "oer": 687,
      "ld": 688,
      "aw": 689,
      "ich": 690,
      "ew": 691,
      "sp": 692,
      "Ã©": 693,
      "oel": 694,
      "Ġtyd": 695,
      "Ġ5": 696,
      "Ġmense": 697,
      "ial": 698,
      "az": 699,
      "ĠEk": 700,
      "lek": 701,
      "Ġgebruik": 702,
      "eken": 703,
      "ede": 704,
      "mer": 705,
      "ment": 706,
      "ive": 707,
      "omp": 708,
      "20": 709,
      "orn": 710,
      "av": 711,
      "ian": 712,
      "ater": 713,
      "ulle": 714,
      "elo": 715,
      "ets": 716,
      "Ġgr": 717,
      "ov": 718,
      "Ġkon": 719,
      "ĠAn": 720,
      "Ġhom": 721,
      "Ġare": 722,
      "ini": 723,
      "ary": 724,
      "amp": 725,
      "ost": 726,
      "Ġhis": 727,
      "Ġwil": 728,
      "oku": 729,
      "uba": 730,
      "âĢĻ": 731,
      "ande": 732,
      "Ġag": 733,
      "uss": 734,
      "ya": 735,
      "ting": 736,
      "ĠAs": 737,
      "erv": 738,
      "ain": 739,
      "Ġem": 740,
      "Ġgen": 741,
      "und": 742,
      "ĠY": 743,
      "Ġres": 744,
      "Ġmin": 745,
      "ĠAl": 746,
      "Ġdr": 747,
      "ish": 748,
      "Ġteen": 749,
      "Ġdi": 750,
      "erste": 751,
      "Ġha": 752,
      "tem": 753,
      "les": 754,
      "Ġch": 755,
      "sie": 756,
      "gel": 757,
      "amb": 758,
      "Ġok": 759,
      "Ġex": 760,
      "Ġbo": 761,
      "Ġnog": 762,
      "Ġkl": 763,
      "Ġra": 764,
      "Ġes": 765,
      "Ġez": 766,
      "ĠGod": 767,
      "Ġ200": 768,
      "Ġaang": 769,
      "ated": 770,
      "Ġla": 771,
      "Ġbl": 772,
      "per": 773,
      "ker": 774,
      "ayo": 775,
      "Ġjaar": 776,
      "rek": 777,
      "Ġcon": 778,
      "Ġper": 779,
      "ĠHe": 780,
      "ĠsÃª": 781,
      "Ġnu": 782,
      "ering": 783,
      "laas": 784,
      "ome": 785,
      "oof": 786,
      "jie": 787,
      "Ġgo": 788,
      "Ġbegin": 789,
      "ĠOn": 790,
      "Ġtwe": 791,
      "Ġ|": 792,
      "ĠHy": 793,
      "ff": 794,
      "Ġak": 795,
      "so": 796,
      "Ġiz": 797,
      "),": 798,
      "hu": 799,
      "pl": 800,
      "Ġself": 801,
      "ors": 802,
      "eel": 803,
      "age": 804,
      "luit": 805,
      "Ġnou": 806,
      "Ġverk": 807,
      "Ġye": 808,
      "Å¡": 809,
      "enz": 810,
      "alo": 811,
      "Ġ18": 812,
      "rit": 813,
      "yl": 814,
      "ryf": 815,
      "Ġuku": 816,
      "kom": 817,
      "ĠUn": 818,
      "ente": 819,
      "dat": 820,
      "Ġdoen": 821,
      "Ġhou": 822,
      "Ġind": 823,
      "sa": 824,
      "land": 825,
      "ue": 826,
      "iÃ«": 827,
      "oh": 828,
      "Ġbr": 829,
      "rag": 830,
      "inn": 831,
      "ase": 832,
      "aba": 833,
      "Ġke": 834,
      "Ġgek": 835,
      "self": 836,
      "Ġversk": 837,
      "Ġint": 838,
      "Ġ6": 839,
      "Ġmak": 840,
      "ree": 841,
      "Ġdan": 842,
      "Ġher": 843,
      "Ġpers": 844,
      "ric": 845,
      "ction": 846,
      "uc": 847,
      "inge": 848,
      "Ġad": 849,
      "ec": 850,
      "Ġap": 851,
      "sh": 852,
      "Ġverb": 853,
      "ex": 854,
      "Ġ0": 855,
      "Ġweer": 856,
      "ula": 857,
      "Ġar": 858,
      "ult": 859,
      "ama": 860,
      "ins": 861,
      "je": 862,
      "ikh": 863,
      "iteit": 864,
      "ĠTh": 865,
      "iss": 866,
      "Ġsou": 867,
      "vol": 868,
      "Ġkind": 869,
      "19": 870,
      "yo": 871,
      "gr": 872,
      "Ġhandel": 873,
      "ani": 874,
      "tern": 875,
      "ert": 876,
      "isie": 877,
      "ding": 878,
      "man": 879,
      "ĠMar": 880,
      "ĠIs": 881,
      "ook": 882,
      "ork": 883,
      "athi": 884,
      "Ġwere": 885,
      "Ġgem": 886,
      "ool": 887,
      "Ġbed": 888,
      "Ġbest": 889,
      "Ġbek": 890,
      "uth": 891,
      "akh": 892,
      "ise": 893,
      "na": 894,
      "ina": 895,
      "ars": 896,
      "ges": 897,
      "Ġkle": 898,
      "ical": 899,
      "ba": 900,
      "oet": 901,
      "aka": 902,
      "elp": 903,
      "eds": 904,
      "skap": 905,
      "Ġie": 906,
      "tu": 907,
      "rist": 908,
      "enn": 909,
      "ĠZ": 910,
      "idd": 911,
      "ous": 912,
      "baar": 913,
      "pro": 914,
      "va": 915,
      "olo": 916,
      "Ġsaam": 917,
      "Ġverw": 918,
      "Ġsw": 919,
      "dig": 920,
      "Ġ10": 921,
      "Ġwhich": 922,
      "Ġing": 923,
      "Ġvolg": 924,
      "Ãªr": 925,
      "gew": 926,
      "Ġ7": 927,
      "Ġlaat": 928,
      "van": 929,
      "oog": 930,
      "Ġkun": 931,
      "gh": 932,
      "iso": 933,
      "Ġsek": 934,
      "Ġpol": 935,
      "iewe": 936,
      "Ġprob": 937,
      "Ġtr": 938,
      "lag": 939,
      "ze": 940,
      "Ġnot": 941,
      "Ġda": 942,
      "Ġtwee": 943,
      "ight": 944,
      "ice": 945,
      "Ġ8": 946,
      "ĠLe": 947,
      "alle": 948,
      "Ġvert": 949,
      "ĠAfrik": 950,
      "Af": 951,
      "Ġou": 952,
      "aph": 953,
      "ders": 954,
      "ember": 955,
      "anneer": 956,
      "ga": 957,
      "Ek": 958,
      "Ġbesk": 959,
      "Ġmens": 960,
      "ther": 961,
      "Ġsien": 962,
      "In": 963,
      "ake": 964,
      "ĠÅ": 965,
      "Ġkry": 966,
      "Ġgoed": 967,
      "olog": 968,
      "Ġland": 969,
      "cl": 970,
      "ime": 971,
      "eli": 972,
      "Ġpart": 973,
      "Ġlewe": 974,
      "Ġ.": 975,
      "ubl": 976,
      "use": 977,
      "ĠOns": 978,
      "tig": 979,
      "kap": 980,
      "reek": 981,
      "tyd": 982,
      "ali": 983,
      "ma": 984,
      "Ġeerste": 985,
      "oeg": 986,
      "sies": 987,
      "rat": 988,
      "omb": 989,
      "pt": 990,
      "Ġtra": 991,
      "ese": 992,
      "Ġgeh": 993,
      "Ġsc": 994,
      "ĠÅī": 995,
      "ĠPr": 996,
      "ena": 997,
      "ign": 998,
      "dag": 999,
      "out": 1000,
      "Ġus": 1001,
      "ĠFr": 1002,
      "Ġelke": 1003,
      "ooi": 1004,
      "org": 1005,
      "Ġcomp": 1006,
      "ĠDaar": 1007,
      "ah": 1008,
      "Ġhas": 1009,
      "Ġ9": 1010,
      "Ġbelang": 1011,
      "ĠAr": 1012,
      "gem": 1013,
      "Ġsit": 1014,
      "io": 1015,
      "oot": 1016,
      "Ġdis": 1017,
      "ĠSuid": 1018,
      "hede": 1019,
      "kel": 1020,
      "wo": 1021,
      "form": 1022,
      "oll": 1023,
      "elike": 1024,
      "leg": 1025,
      "lyn": 1026,
      "werk": 1027,
      "Ġya": 1028,
      "Ġplaas": 1029,
      "ivers": 1030,
      "aanse": 1031,
      "Ġgesk": 1032,
      "Ġukuthi": 1033,
      ".\"": 1034,
      "Ġdag": 1035,
      "Afrik": 1036,
      "10": 1037,
      "Ġnuwe": 1038,
      "fer": 1039,
      "Ġdeel": 1040,
      "woord": 1041,
      "mal": 1042,
      "ions": 1043,
      "Ġbu": 1044,
      "ach": 1045,
      "ĠIt": 1046,
      "irst": 1047,
      "eka": 1048,
      "Ġste": 1049,
      "Ġvrou": 1050,
      "own": 1051,
      "Ãªreld": 1052,
      "Ġhad": 1053,
      "aars": 1054,
      "vel": 1055,
      "seb": 1056,
      "Ġprod": 1057,
      "ound": 1058,
      "ory": 1059,
      "arm": 1060,
      "ussen": 1061,
      "Ġfuthi": 1062,
      "tr": 1063,
      "Ġbeh": 1064,
      "oth": 1065,
      "Ġalso": 1066,
      "Ġngok": 1067,
      "hed": 1068,
      "ons": 1069,
      "Ġmed": 1070,
      "port": 1071,
      "Ġweet": 1072,
      "jies": 1073,
      "Ġph": 1074,
      "akho": 1075,
      "isi": 1076,
      "tes": 1077,
      "ĠgesÃª": 1078,
      "ade": 1079,
      "Ġeg": 1080,
      "Ġlig": 1081,
      "ĠSy": 1082,
      "ĠÂ": 1083,
      "Ġget": 1084,
      "Ġgee": 1085,
      "Ġhuis": 1086,
      "urg": 1087,
      ".âĢĿ": 1088,
      "oto": 1089,
      "ieke": 1090,
      "lig": 1091,
      "igheid": 1092,
      "ika": 1093,
      "anc": 1094,
      "ĠChrist": 1095,
      "ash": 1096,
      "Ġfe": 1097,
      "old": 1098,
      "ĠSeks": 1099,
      "ike": 1100,
      "cc": 1101,
      "Ġbev": 1102,
      "Ġhelp": 1103,
      "its": 1104,
      "Ġhand": 1105,
      "ierdie": 1106,
      "Ġgra": 1107,
      "olg": 1108,
      "ĠGe": 1109,
      "Ġwho": 1110,
      "ery": 1111,
      "\",": 1112,
      "este": 1113,
      "erg": 1114,
      "\".": 1115,
      "ĠMaar": 1116,
      "vang": 1117,
      "ante": 1118,
      "Ġcont": 1119,
      "dr": 1120,
      "Ġall": 1121,
      "onde": 1122,
      "ĠMe": 1123,
      "enk": 1124,
      "rien": 1125,
      "ident": 1126,
      "enza": 1127,
      "--": 1128,
      "Ġ/": 1129,
      "Ġfirst": 1130,
      "Ġthis": 1131,
      "bel": 1132,
      "Ġwant": 1133,
      "000": 1134,
      "Ġlang": 1135,
      "Ġno": 1136,
      "Ġtheir": 1137,
      "ses": 1138,
      "ations": 1139,
      "amil": 1140,
      "ational": 1141,
      "eur": 1142,
      "eth": 1143,
      "Ġ12": 1144,
      "ule": 1145,
      "ĠPro": 1146,
      "Ġhave": 1147,
      "Ġvra": 1148,
      "Ġbly": 1149,
      "Ġalle": 1150,
      "hip": 1151,
      "ix": 1152,
      "ĠAmer": 1153,
      "raat": 1154,
      "yf": 1155,
      "onke": 1156,
      "unk": 1157,
      "Ġjulle": 1158,
      "oms": 1159,
      "Ãªre": 1160,
      "Ġkinders": 1161,
      "ition": 1162,
      "aste": 1163,
      "ola": 1164,
      "Dit": 1165,
      "Ġmag": 1166,
      "Ġukuba": 1167,
      "Ġgeen": 1168,
      "Ġtussen": 1169,
      "uph": 1170,
      "ms": 1171,
      "gev": 1172,
      "Ġ199": 1173,
      "Ġbut": 1174,
      "Ġout": 1175,
      "Ġterug": 1176,
      "estel": 1177,
      "ual": 1178,
      "Ġ15": 1179,
      "bo": 1180,
      "the": 1181,
      "oma": 1182,
      "andag": 1183,
      "iseer": 1184,
      "ĠJes": 1185,
      "âĢ¦": 1186,
      "odig": 1187,
      "mand": 1188,
      "any": 1189,
      "Ġkn": 1190,
      "Ġbas": 1191,
      "Ġ,": 1192,
      "Ġpaar": 1193,
      "br": 1194,
      "Ġbin": 1195,
      "oeie": 1196,
      "Ġwanneer": 1197,
      "ili": 1198,
      "...": 1199,
      "Ġvl": 1200,
      "Ġsu": 1201,
      "Ġverl": 1202,
      "Ġea": 1203,
      "akhe": 1204,
      "Ġ&": 1205,
      "ton": 1206,
      "voor": 1207,
      "able": 1208,
      "Ġpos": 1209,
      "ance": 1210,
      "by": 1211,
      "Ġseks": 1212,
      "atuur": 1213,
      "ster": 1214,
      "ents": 1215,
      "Ġwou": 1216,
      "ĠVer": 1217,
      "ick": 1218,
      "ount": 1219,
      "21": 1220,
      "ĠwÃªreld": 1221,
      "Ġger": 1222,
      "ĠOp": 1223,
      "Ġverd": 1224,
      "Ġeie": 1225,
      "Ġone": 1226,
      "iel": 1227,
      "ĠJoh": 1228,
      "alk": 1229,
      "min": 1230,
      "Ġgele": 1231,
      "iding": 1232,
      "Ġnj": 1233,
      "eke": 1234,
      "Ġforex": 1235,
      "wys": 1236,
      "Ġcl": 1237,
      "red": 1238,
      "Ġcomm": 1239,
      "ates": 1240,
      "âĢĵ": 1241,
      "fe": 1242,
      "soek": 1243,
      "ĠSc": 1244,
      "ĠNg": 1245,
      "veel": 1246,
      "unt": 1247,
      "Ġinter": 1248,
      "ĠNew": 1249,
      "Ġup": 1250,
      "ukh": 1251,
      "enis": 1252,
      "Ġbeste": 1253,
      "Ġits": 1254,
      "Ġkwe": 1255,
      "Ġgere": 1256,
      "Ġwater": 1257,
      "Ġpres": 1258,
      "pos": 1259,
      "ER": 1260,
      "oorde": 1261,
      "ĠSp": 1262,
      "een": 1263,
      "Ġplek": 1264,
      "ander": 1265,
      "Ġbelangrik": 1266,
      "uma": 1267,
      "Ġdink": 1268,
      "Ġmil": 1269,
      "Ġkeer": 1270,
      "Ġenige": 1271,
      "oort": 1272,
      "Ġfin": 1273,
      "val": 1274,
      "Ġneem": 1275,
      "uro": 1276,
      "way": 1277,
      "Ġsh": 1278,
      "uz": 1279,
      "wn": 1280,
      "18": 1281,
      "ĠdiÃ©": 1282,
      "ence": 1283,
      "12": 1284,
      "Ġlok": 1285,
      "enzi": 1286,
      "Ġbeen": 1287,
      "abo": 1288,
      "Ġweb": 1289,
      "co": 1290,
      "ete": 1291,
      "ium": 1292,
      "ĠRe": 1293,
      "wyl": 1294,
      "elling": 1295,
      "Ġdra": 1296,
      "Ġlief": 1297,
      "ute": 1298,
      "wel": 1299,
      "anga": 1300,
      "uka": 1301,
      "Ġ17": 1302,
      "amer": 1303,
      "ire": 1304,
      "enskap": 1305,
      "wing": 1306,
      "Ġleer": 1307,
      "erst": 1308,
      "ille": 1309,
      "ĠWat": 1310,
      "Ġart": 1311,
      "ukk": 1312,
      "ely": 1313,
      "ited": 1314,
      "Ġomdat": 1315,
      "Ġiets": 1316,
      "ack": 1317,
      "weni": 1318,
      "hile": 1319,
      "voer": 1320,
      "Ġeng": 1321,
      "âĢľ": 1322,
      "Ġwa": 1323,
      "Ġgeld": 1324,
      "uf": 1325,
      "Ġklein": 1326,
      "uring": 1327,
      "bl": 1328,
      "ij": 1329,
      "arr": 1330,
      "antu": 1331,
      "Ġ16": 1332,
      "ĠBe": 1333,
      "ĠJesus": 1334,
      "Ġ11": 1335,
      "Ġegter": 1336,
      "Ã¯": 1337,
      "Ġlater": 1338,
      "Ġdes": 1339,
      "Ġalles": 1340,
      "Ġplay": 1341,
      "Ġsod": 1342,
      "Ġgemaak": 1343,
      "Ġbro": 1344,
      "Ġgoeie": 1345,
      "oba": 1346,
      "Ġbec": 1347,
      "ĠSe": 1348,
      "res": 1349,
      "ats": 1350,
      "ĠInd": 1351,
      "ideo": 1352,
      "pel": 1353,
      "Ġx": 1354,
      "ĠEl": 1355,
      "Ã¡": 1356,
      "kep": 1357,
      "Ġkyk": 1358,
      "Ġfil": 1359,
      "ĠAd": 1360,
      "Ġstud": 1361,
      "bare": 1362,
      "att": 1363,
      "ĠBy": 1364,
      "eter": 1365,
      "asse": 1366,
      "Ġins": 1367,
      "gram": 1368,
      "geb": 1369,
      "Ġol": 1370,
      "Ġmot": 1371,
      "Ġwork": 1372,
      "wik": 1373,
      "eneem": 1374,
      "ern": 1375,
      "ĠHulle": 1376,
      "15": 1377,
      "Ġrec": 1378,
      "Ġinto": 1379,
      "Ġweg": 1380,
      "The": 1381,
      "iew": 1382,
      "odwa": 1383,
      "Ġtse": 1384,
      "ĠBr": 1385,
      "Ġselfs": 1386,
      "ced": 1387,
      "ange": 1388,
      "Ġalmal": 1389,
      "Ġincl": 1390,
      "akt": 1391,
      "Ġpersoon": 1392,
      "Ġ2019": 1393,
      "Ġsonder": 1394,
      "Ġ14": 1395,
      "ĠJan": 1396,
      "asion": 1397,
      "tige": 1398,
      "Ġspes": 1399,
      "Ġinst": 1400,
      "eling": 1401,
      "rys": 1402,
      "11": 1403,
      "act": 1404,
      "Ġkos": 1405,
      "atis": 1406,
      "ader": 1407,
      "Ġlek": 1408,
      "reg": 1409,
      "orex": 1410,
      "inde": 1411,
      "Ġtwo": 1412,
      "eder": 1413,
      "iy": 1414,
      "olle": 1415,
      "Ġmanier": 1416,
      "bu": 1417,
      "sel": 1418,
      "Ġoff": 1419,
      "rug": 1420,
      "ekte": 1421,
      "Ġmis": 1422,
      "hem": 1423,
      "Ġmark": 1424,
      "iddel": 1425,
      "hle": 1426,
      "Ġmoont": 1427,
      "waar": 1428,
      "AN": 1429,
      "Ġhoof": 1430,
      "da": 1431,
      "lela": 1432,
      "Ġkop": 1433,
      "Ġfamil": 1434,
      "Ġaltyd": 1435,
      "Ġred": 1436,
      "asies": 1437,
      "Ġdood": 1438,
      "ral": 1439,
      "Ġsla": 1440,
      "Ã«l": 1441,
      "hla": 1442,
      "Afrika": 1443,
      "Ġ13": 1444,
      "ny": 1445,
      "Ġfl": 1446,
      "beeld": 1447,
      "imb": 1448,
      "tt": 1449,
      "vaar": 1450,
      "hool": 1451,
      "ace": 1452,
      "Ġover": 1453,
      "Ġgrond": 1454,
      "As": 1455,
      "mo": 1456,
      "ĠHierdie": 1457,
      "ĠhÃª": 1458,
      "Ġnew": 1459,
      "Ons": 1460,
      "oy": 1461,
      "Ġve": 1462,
      "orp": 1463,
      "als": 1464,
      "loed": 1465,
      "Ġber": 1466,
      "Ġant": 1467,
      "Ġgl": 1468,
      "Ġsleg": 1469,
      "aye": 1470,
      "Ġmus": 1471,
      "oko": 1472,
      "hes": 1473,
      "onom": 1474,
      "ĠGro": 1475,
      "Ġnodig": 1476,
      "ward": 1477,
      "nem": 1478,
      "ring": 1479,
      "Ġles": 1480,
      "ĠAm": 1481,
      "ĠDe": 1482,
      "Ġboek": 1483,
      "Ġgest": 1484,
      "iw": 1485,
      "raf": 1486,
      "Ġthey": 1487,
      "ister": 1488,
      "maak": 1489,
      "ĠMa": 1490,
      "Ġ198": 1491,
      "Ġdrie": 1492,
      "Ġyou": 1493,
      "vers": 1494,
      "saak": 1495,
      "50": 1496,
      "aans": 1497,
      "Ġvolgende": 1498,
      "17": 1499,
      "urs": 1500,
      "16": 1501,
      "ĠSk": 1502,
      "Ġpre": 1503,
      "reat": 1504,
      "iswa": 1505,
      "Ġstaan": 1506,
      "Ġev": 1507,
      "wikkel": 1508,
      "Ġafter": 1509,
      "Ġnam": 1510,
      "cted": 1511,
      "Ġgeme": 1512,
      "14": 1513,
      "Ġopsies": 1514,
      "ision": 1515,
      "ĠSh": 1516,
      "ĠJy": 1517,
      "ĠUnivers": 1518,
      "ole": 1519,
      "riend": 1520,
      "ged": 1521,
      "ĠOm": 1522,
      "Ġproble": 1523,
      "Ġagter": 1524,
      "Ġbied": 1525,
      "Ġaand": 1526,
      "ode": 1527,
      "Ġporn": 1528,
      "!!": 1529,
      "aap": 1530,
      "Ġeff": 1531,
      "Ġdus": 1532,
      "Ġterwyl": 1533,
      "ose": 1534,
      "erde": 1535,
      "Ġpe": 1536,
      "Ġpubl": 1537,
      "ple": 1538,
      "ics": 1539,
      "akhulu": 1540,
      "elwa": 1541,
      "Ġdik": 1542,
      "22": 1543,
      "gen": 1544,
      "ife": 1545,
      "iale": 1546,
      "Ġkub": 1547,
      "Ġwet": 1548,
      "anye": 1549,
      "oem": 1550,
      "Ġbak": 1551,
      "moet": 1552,
      "rum": 1553,
      "uy": 1554,
      "30": 1555,
      "agte": 1556,
      "ari": 1557,
      "Ġten": 1558,
      "Ġezi": 1559,
      "Ã«r": 1560,
      "com": 1561,
      "Ġbeteken": 1562,
      "Ġopen": 1563,
      "ober": 1564,
      "ull": 1565,
      "onk": 1566,
      "Ġshe": 1567,
      "iers": 1568,
      "Ġsup": 1569,
      "Ġother": 1570,
      "ĠMet": 1571,
      "ekaar": 1572,
      "dom": 1573,
      "oud": 1574,
      "orld": 1575,
      "Ġtoeg": 1576,
      "Ġverst": 1577,
      "ano": 1578,
      "24": 1579,
      "led": 1580,
      "Ġval": 1581,
      "ĠPl": 1582,
      "aring": 1583,
      "gee": 1584,
      "Ġglo": 1585,
      "ces": 1586,
      "ruk": 1587,
      "ĠJul": 1588,
      "ĠUk": 1589,
      "Ġmore": 1590,
      "Ġstel": 1591,
      "aie": 1592,
      "ĠMaat": 1593,
      "Ġqu": 1594,
      "nd": 1595,
      "room": 1596,
      "uidelik": 1597,
      "Ġgratis": 1598,
      "Ġsl": 1599,
      "Ġsin": 1600,
      "ĠMy": 1601,
      "ĠPh": 1602,
      "ger": 1603,
      "Ġdaarvan": 1604,
      "IE": 1605,
      "Ġwel": 1606,
      "Ġpar": 1607,
      "Ġbep": 1608,
      "ough": 1609,
      "ps": 1610,
      "isies": 1611,
      "ommer": 1612,
      "ĠEng": 1613,
      "ĠJun": 1614,
      "Ġprof": 1615,
      "Ġverh": 1616,
      "Ġmaat": 1617,
      "Ġprobeer": 1618,
      "ĠForex": 1619,
      "13": 1620,
      "Ġtsa": 1621,
      "Ġgehad": 1622,
      "ulo": 1623,
      "my": 1624,
      "ames": 1625,
      "Ġcan": 1626,
      "Ġts": 1627,
      "Ġdaardie": 1628,
      "Ġ2018": 1629,
      "gan": 1630,
      "ĠGr": 1631,
      "Ġmoe": 1632,
      "ligting": 1633,
      "vert": 1634,
      "Ġtime": 1635,
      "ĠSep": 1636,
      "line": 1637,
      "ement": 1638,
      "Ã³": 1639,
      "Ġmoontlik": 1640,
      "urn": 1641,
      "ict": 1642,
      "Ġheel": 1643,
      "Ġub": 1644,
      "Ġonders": 1645,
      "Ġnab": 1646,
      "ĠVan": 1647,
      "Ġvind": 1648,
      "Ġmat": 1649,
      "to": 1650,
      "Ġspel": 1651,
      "ail": 1652,
      "Ġend": 1653,
      "wens": 1654,
      "ei": 1655,
      "Ġserv": 1656,
      "wazi": 1657,
      "Ġsub": 1658,
      "Ġvoel": 1659,
      "ĠX": 1660,
      "outh": 1661,
      "ony": 1662,
      "houd": 1663,
      "Ġnge": 1664,
      "werp": 1665,
      "Ġseker": 1666,
      "Ġ2017": 1667,
      "Ġide": 1668,
      "Ġkont": 1669,
      "ging": 1670,
      "Ġed": 1671,
      "oss": 1672,
      "AR": 1673,
      "Ġgep": 1674,
      "ĠVir": 1675,
      "app": 1676,
      "Ġ30": 1677,
      "ĠCl": 1678,
      "ĠHere": 1679,
      "ild": 1680,
      "Ġdieself": 1681,
      "stand": 1682,
      "Ġdieselfde": 1683,
      "Ġform": 1684,
      "umb": 1685,
      "Ġraak": 1686,
      "Ġverske": 1687,
      "eho": 1688,
      "ason": 1689,
      "ally": 1690,
      "Ġ197": 1691,
      "Ġaanlyn": 1692,
      "iny": 1693,
      "Ġstad": 1694,
      "Ġdo": 1695,
      "des": 1696,
      "ĠAug": 1697,
      "kul": 1698,
      "Ġontwikkel": 1699,
      "ĠBl": 1700,
      "Ġwie": 1701,
      "haal": 1702,
      "Ġdinge": 1703,
      "Ġsodat": 1704,
      "ĠDis": 1705,
      "awo": 1706,
      "elle": 1707,
      "Ġtrans": 1708,
      "ooit": 1709,
      "ui": 1710,
      "Ġnatuur": 1711,
      "raak": 1712,
      "Ġstaat": 1713,
      "Ġnok": 1714,
      "apho": 1715,
      "orie": 1716,
      "Ġpolit": 1717,
      "aya": 1718,
      "rig": 1719,
      "burg": 1720,
      ",âĢĿ": 1721,
      "rol": 1722,
      "Ġvry": 1723,
      "ĠNov": 1724,
      "zo": 1725,
      "Ġpa": 1726,
      "inc": 1727,
      "Ġob": 1728,
      "Ġgedoen": 1729,
      "ican": 1730,
      "Ġco": 1731,
      "Ġvas": 1732,
      "Ġhart": 1733,
      "ja": 1734,
      "Ġsing": 1735,
      "Ġet": 1736,
      "Ġhele": 1737,
      "Ġlo": 1738,
      "tember": 1739,
      "Ġmon": 1740,
      "Ġkakhulu": 1741,
      "ĠNa": 1742,
      "Ġinclud": 1743,
      "adat": 1744,
      "Ġlank": 1745,
      "lis": 1746,
      "ros": 1747,
      "Ġkh": 1748,
      "Ġsteeds": 1749,
      "iks": 1750,
      "ng": 1751,
      "ope": 1752,
      "Ġsec": 1753,
      "Ġreeds": 1754,
      "Ġsoek": 1755,
      "spr": 1756,
      "uq": 1757,
      "ott": 1758,
      "Ġkanye": 1759,
      "Ġkus": 1760,
      "wes": 1761,
      "Ġbele": 1762,
      "raad": 1763,
      "ĠQ": 1764,
      "Ġnooit": 1765,
      "ĠTra": 1766,
      "Ġlyk": 1767,
      "gaan": 1768,
      "uw": 1769,
      "pa": 1770,
      "Ġweek": 1771,
      "ĠMaatsoek": 1772,
      "Ġlit": 1773,
      "ĠmC": 1774,
      "Ġ[": 1775,
      "ĠBrit": 1776,
      "Ġgevolg": 1777,
      "SA": 1778,
      "ession": 1779,
      "Ġbekend": 1780,
      "illende": 1781,
      "orth": 1782,
      "dien": 1783,
      "ham": 1784,
      "Ġeers": 1785,
      "ka": 1786,
      "hal": 1787,
      "Ġyok": 1788,
      "Ġloc": 1789,
      "hez": 1790,
      "Ġpad": 1791,
      "Ġmoes": 1792,
      "pril": 1793,
      "akel": 1794,
      "Ġproduk": 1795,
      "werf": 1796,
      "Ġgebeur": 1797,
      "king": 1798,
      "arly": 1799,
      "ĠEuro": 1800,
      "Ġmaklik": 1801,
      "arn": 1802,
      "ĠAan": 1803,
      "Ġiemand": 1804,
      "ĠHoe": 1805,
      "ĠSw": 1806,
      "into": 1807,
      "ower": 1808,
      "Ġprov": 1809,
      "ating": 1810,
      "ĠMed": 1811,
      "eker": 1812,
      "Ġwould": 1813,
      "ron": 1814,
      "ino": 1815,
      "Ġpla": 1816,
      "Ġkunye": 1817,
      "oonlik": 1818,
      "lede": 1819,
      "ants": 1820,
      "Ġbeskik": 1821,
      "Ġwhen": 1822,
      "ett": 1823,
      "asionale": 1824,
      "Ġele": 1825,
      "ĠAb": 1826,
      "Ġzi": 1827,
      "Ġpraat": 1828,
      "rok": 1829,
      "ara": 1830,
      "arie": 1831,
      "Ġhim": 1832,
      "Ġrel": 1833,
      "Ġsho": 1834,
      "Ġveral": 1835,
      "anda": 1836,
      "elsel": 1837,
      "Ġkomm": 1838,
      "Ġnoma": 1839,
      "Ġintern": 1840,
      "gro": 1841,
      "Ġkerk": 1842,
      "Ġlees": 1843,
      "ĠOnt": 1844,
      "iq": 1845,
      "rif": 1846,
      "ĠAugust": 1847,
      "Ġbeter": 1848,
      "Ġ196": 1849,
      "Ġverskillende": 1850,
      "Ġvorm": 1851,
      "let": 1852,
      "ities": 1853,
      "Ġond": 1854,
      "Ġacc": 1855,
      "Ġvier": 1856,
      "Ġnjeng": 1857,
      "Ġnaam": 1858,
      "ased": 1859,
      "rip": 1860,
      "Ġwys": 1861,
      "ox": 1862,
      "eland": 1863,
      "iph": 1864,
      "Ġsim": 1865,
      "ri": 1866,
      "Ġnd": 1867,
      "Ġvideo": 1868,
      "estig": 1869,
      "arde": 1870,
      "ĠSA": 1871,
      "ople": 1872,
      "ĠVol": 1873,
      "Ġbewe": 1874,
      "Ġ2016": 1875,
      "Ġact": 1876,
      "Ġunder": 1877,
      "iere": 1878,
      "Ġspeel": 1879,
      "zim": 1880,
      "Ġeer": 1881,
      "Ġvre": 1882,
      "ude": 1883,
      "Ġvinn": 1884,
      "ĠSeptember": 1885,
      "ots": 1886,
      "Ġ:": 1887,
      "Ġ24": 1888,
      "Ġ2020": 1889,
      "ator": 1890,
      "lu": 1891,
      "Ġyears": 1892,
      "elk": 1893,
      "Ġ$": 1894,
      "Ġass": 1895,
      "Ġskool": 1896,
      "ietjie": 1897,
      "gek": 1898,
      "Ġverander": 1899,
      "IN": 1900,
      "Ġwill": 1901,
      "ĠSte": 1902,
      "Ġinc": 1903,
      "ĠWe": 1904,
      "ween": 1905,
      "Ġvro": 1906,
      "off": 1907,
      "Ġeb": 1908,
      "Ġinligting": 1909,
      "Ġoop": 1910,
      "Ġhoog": 1911,
      "Ġer": 1912,
      "arl": 1913,
      "Ġbesluit": 1914,
      "Ġtydens": 1915,
      "ament": 1916,
      "ĠtÅ¡": 1917,
      "Ġkant": 1918,
      "ĠPa": 1919,
      "Daar": 1920,
      "Ġser": 1921,
      "Ġjong": 1922,
      "Ġabout": 1923,
      "ĠJanu": 1924,
      "ved": 1925,
      "Ġkoop": 1926,
      "Ġskryf": 1927,
      "Ġac": 1928,
      "Ġmeeste": 1929,
      "Ġdoel": 1930,
      "Ġorgan": 1931,
      "ikhathi": 1932,
      "ten": 1933,
      "âĢĶ": 1934,
      "Ġcar": 1935,
      "Ġret": 1936,
      "Ġagain": 1937,
      "wet": 1938,
      "ock": 1939,
      "Ġbere": 1940,
      "EN": 1941,
      "ollow": 1942,
      "vern": 1943,
      "Ġdir": 1944,
      "Ġben": 1945,
      "Ġdae": 1946,
      "Ġfilm": 1947,
      "Ġreken": 1948,
      "likheid": 1949,
      "ĠWh": 1950,
      "ĠApril": 1951,
      "Ġ25": 1952,
      "wana": 1953,
      "Ġcons": 1954,
      "Ġbinne": 1955,
      "ious": 1956,
      "ids": 1957,
      "Ġwhere": 1958,
      "enheid": 1959,
      "Ġlekker": 1960,
      "esk": 1961,
      "Ġpas": 1962,
      "Al": 1963,
      "elde": 1964,
      "ĠThis": 1965,
      "Ġthere": 1966,
      "wasse": 1967,
      "iko": 1968,
      "ikel": 1969,
      "ebru": 1970,
      "erm": 1971,
      "ining": 1972,
      "Ġken": 1973,
      "ithi": 1974,
      "Ġvertel": 1975,
      "Ġang": 1976,
      "rough": 1977,
      "ush": 1978,
      "Ġkrag": 1979,
      "Ġwonder": 1980,
      "ven": 1981,
      "Ġsm": 1982,
      "cess": 1983,
      "Ġontvang": 1984,
      "Ġga": 1985,
      "Ġslegs": 1986,
      "rib": 1987,
      "Ġbre": 1988,
      "ihl": 1989,
      "par": 1990,
      "sy": 1991,
      "Ġsuk": 1992,
      "Ġsex": 1993,
      "Ġstand": 1994,
      "Ġstr": 1995,
      "heer": 1996,
      "Ġmod": 1997,
      "Ġonly": 1998,
      "uns": 1999,
      "untu": 2000,
      "ĠNovember": 2001,
      "ommige": 2002,
      "ures": 2003,
      "get": 2004,
      "ensies": 2005,
      "Ġvoort": 2006,
      "ism": 2007,
      "Ġvandag": 2008,
      "25": 2009,
      "una": 2010,
      "ata": 2011,
      "Ġbietjie": 2012,
      "ams": 2013,
      "Ġkodwa": 2014,
      "cy": 2015,
      "Ġdalk": 2016,
      "Ġrol": 2017,
      "iste": 2018,
      "ekt": 2019,
      "unkulu": 2020,
      "ĠHo": 2021,
      "Ġeien": 2022,
      "Ġswart": 2023,
      "ape": 2024,
      "imo": 2025,
      "sien": 2026,
      "ĠTe": 2027,
      "Ġinv": 2028,
      "ĠOr": 2029,
      "Ġmost": 2030,
      "stel": 2031,
      "abe": 2032,
      "ĠShe": 2033,
      "Ġngoku": 2034,
      "ific": 2035,
      "Ġsterk": 2036,
      "lack": 2037,
      "Ġanders": 2038,
      "gn": 2039,
      "gestel": 2040,
      "Ġrele": 2041,
      "Ġatt": 2042,
      "Ġprogram": 2043,
      "St": 2044,
      "elwe": 2045,
      "obo": 2046,
      "ĠMan": 2047,
      "kl": 2048,
      "du": 2049,
      "wels": 2050,
      "Ġkort": 2051,
      "Ġcent": 2052,
      "andla": 2053,
      "Ġsow": 2054,
      "Ġskep": 2055,
      "deel": 2056,
      "atha": 2057,
      "Ġtro": 2058,
      "ĠPers": 2059,
      "ury": 2060,
      "ays": 2061,
      "Ġ194": 2062,
      "ersteun": 2063,
      "Ġeet": 2064,
      "uwe": 2065,
      "ĠOk": 2066,
      "xa": 2067,
      "ube": 2068,
      "ĠDes": 2069,
      "Ġerv": 2070,
      "ivid": 2071,
      "py": 2072,
      "igte": 2073,
      "ĠKe": 2074,
      "ehova": 2075,
      "tho": 2076,
      "ennis": 2077,
      "mp": 2078,
      "Ġ21": 2079,
      "Ġduring": 2080,
      "inye": 2081,
      "Ġverder": 2082,
      ",\"": 2083,
      "Ġgelede": 2084,
      "go": 2085,
      "Ġwaarde": 2086,
      "Ġpop": 2087,
      "Ġhist": 2088,
      "gest": 2089,
      "Ġli": 2090,
      "rateg": 2091,
      "ĠSouth": 2092,
      "Ġbetween": 2093,
      "En": 2094,
      "Ġtl": 2095,
      "uck": 2096,
      "cial": 2097,
      "ĠFor": 2098,
      "ww": 2099,
      "ĠEd": 2100,
      "Ġliefde": 2101,
      "Ġmen": 2102,
      "ĠComm": 2103,
      "ris": 2104,
      "ĠEx": 2105,
      "Ġloop": 2106,
      "tjie": 2107,
      "Ġ2015": 2108,
      "iging": 2109,
      "ĠCon": 2110,
      "iener": 2111,
      "ĠUnited": 2112,
      "ekile": 2113,
      "uil": 2114,
      "ono": 2115,
      "Ġkwi": 2116,
      "Ġminder": 2117,
      "Ġster": 2118,
      "Ġinf": 2119,
      "Ġnadat": 2120,
      "Ġvis": 2121,
      "bed": 2122,
      "ĠUniversity": 2123,
      "Ġgroep": 2124,
      "ject": 2125,
      "ĠDan": 2126,
      "Ġsluit": 2127,
      "Ġwit": 2128,
      "Ġmade": 2129,
      "ilo": 2130,
      "Ġniks": 2131,
      "ĠFebru": 2132,
      "Ġveil": 2133,
      "Ġbring": 2134,
      "ila": 2135,
      "ĠNe": 2136,
      "Ġverstaan": 2137,
      "web": 2138,
      "200": 2139,
      "kulunkulu": 2140,
      "met": 2141,
      "Ġmekaar": 2142,
      "velop": 2143,
      "lak": 2144,
      "Ġbew": 2145,
      "Ġstem": 2146,
      "bum": 2147,
      "Ġ22": 2148,
      "Ġwoorde": 2149,
      "Ġgener": 2150,
      "Ġwarm": 2151,
      "ĠAfric": 2152,
      "AA": 2153,
      "Ġwoord": 2154,
      "uku": 2155,
      "Ġsome": 2156,
      "ĠPorn": 2157,
      "oni": 2158,
      "Ġgenoeg": 2159,
      "ty": 2160,
      "ĠTr": 2161,
      "Ġmoeil": 2162,
      "Ġgrou": 2163,
      "ĠMay": 2164,
      "akathi": 2165,
      "ĠÐ": 2166,
      "ago": 2167,
      "arch": 2168,
      "wat": 2169,
      "ĠAfrikaans": 2170,
      "ĠHom": 2171,
      "ware": 2172,
      "Wat": 2173,
      "Ġdien": 2174,
      "ft": 2175,
      "ensie": 2176,
      "ami": 2177,
      "ular": 2178,
      "EL": 2179,
      "Ġrem": 2180,
      "Ġkar": 2181,
      "ES": 2182,
      "rak": 2183,
      "iger": 2184,
      "mb": 2185,
      "ters": 2186,
      "Ġligga": 2187,
      "Ġkung": 2188,
      "Ġsuch": 2189,
      "Ġbat": 2190,
      "berg": 2191,
      "Ġabantu": 2192,
      "Ġ23": 2193,
      "itte": 2194,
      "ĠChristus": 2195,
      "iver": 2196,
      "uim": 2197,
      "Ġze": 2198,
      "ling": 2199,
      "Ġprys": 2200,
      "ather": 2201,
      "23": 2202,
      "ax": 2203,
      "alf": 2204,
      "Ġson": 2205,
      "Ġkum": 2206,
      "Ġkap": 2207,
      "Ġnag": 2208,
      "gg": 2209,
      "ize": 2210,
      "view": 2211,
      "ĠAust": 2212,
      "log": 2213,
      "ote": 2214,
      "Ġngaph": 2215,
      "ories": 2216,
      "jaar": 2217,
      "ryk": 2218,
      "ĠGroot": 2219,
      "rie": 2220,
      "order": 2221,
      "Ġused": 2222,
      "Ġhard": 2223,
      "ankie": 2224,
      "nt": 2225,
      "ctor": 2226,
      "Ġthen": 2227,
      "oint": 2228,
      "Ġbetaal": 2229,
      "Ġstap": 2230,
      "Ġeinde": 2231,
      "erd": 2232,
      "Ġmilj": 2233,
      "Ġkwa": 2234,
      "ĠCar": 2235,
      "Ġthree": 2236,
      "Ġwaarsk": 2237,
      "ield": 2238,
      "uch": 2239,
      "Ġdist": 2240,
      "Ġ2014": 2241,
      "fan": 2242,
      "Ġlewens": 2243,
      "Ġib": 2244,
      "ĠbinÃªre": 2245,
      "Ġverskeie": 2246,
      "isme": 2247,
      "Ġ#": 2248,
      "emb": 2249,
      "ming": 2250,
      "erse": 2251,
      "Ġplan": 2252,
      "Ġthan": 2253,
      "gewing": 2254,
      "Ġwell": 2255,
      "fa": 2256,
      "Ġfollow": 2257,
      "ogra": 2258,
      "Ġbuit": 2259,
      "ative": 2260,
      "Ġalgem": 2261,
      "Ġbeskikbaar": 2262,
      "Ġdem": 2263,
      "Ġey": 2264,
      "lang": 2265,
      "Ġ2013": 2266,
      "fore": 2267,
      "ints": 2268,
      "Ġ100": 2269,
      "âĢĭ": 2270,
      "Ġspec": 2271,
      "Ġ...": 2272,
      "ĠLa": 2273,
      "ĠAmerican": 2274,
      "Ġgeneem": 2275,
      "erman": 2276,
      "Ġvroue": 2277,
      "ux": 2278,
      "Ġbestaan": 2279,
      "qala": 2280,
      "itter": 2281,
      "Ġrond": 2282,
      "Ġondersteun": 2283,
      "ĠOntmoet": 2284,
      "isk": 2285,
      "Ġoper": 2286,
      "huis": 2287,
      "Ġbestuur": 2288,
      "mee": 2289,
      "Ġname": 2290,
      "Ġregte": 2291,
      "ital": 2292,
      "uv": 2293,
      "Ġvoorkom": 2294,
      "Ġset": 2295,
      "Ġthem": 2296,
      "__": 2297,
      "Ġimp": 2298,
      "plek": 2299,
      "Ġdikwels": 2300,
      "Ġkor": 2301,
      "yp": 2302,
      "hlang": 2303,
      "Ġukuze": 2304,
      "Ġopsie": 2305,
      "Ġtog": 2306,
      "oph": 2307,
      "Ġaanges": 2308,
      "Ġpeople": 2309,
      "ĠJohn": 2310,
      "son": 2311,
      "Ġgeval": 2312,
      "eko": 2313,
      "ĠSo": 2314,
      "Ġif": 2315,
      "Ġmooi": 2316,
      "bou": 2317,
      "ologie": 2318,
      "Ġcom": 2319,
      "Ġongel": 2320,
      "ived": 2321,
      "Ġdef": 2322,
      "thou": 2323,
      "ĠÂ·": 2324,
      "Ġ2021": 2325,
      "heth": 2326,
      "Ġkies": 2327,
      "ines": 2328,
      "Ġaant": 2329,
      "Ġ2012": 2330,
      "Ġ`": 2331,
      "Ġteam": 2332,
      "28": 2333,
      "ako": 2334,
      "Ġmay": 2335,
      "adi": 2336,
      "otos": 2337,
      "ĠAt": 2338,
      "Ġsom": 2339,
      "Ġveel": 2340,
      "ĠMaatsoekery": 2341,
      "Ġmakel": 2342,
      "Ġtop": 2343,
      "26": 2344,
      "ley": 2345,
      "Ġik": 2346,
      "Ġfound": 2347,
      "ĠOct": 2348,
      "Ġ000": 2349,
      "loop": 2350,
      "Ġmaatskap": 2351,
      "houding": 2352,
      "ref": 2353,
      "Ġsn": 2354,
      "Ġbesoek": 2355,
      "ryd": 2356,
      "ester": 2357,
      "Ġeenv": 2358,
      "27": 2359,
      "kie": 2360,
      "Ġkok": 2361,
      "ĠAN": 2362,
      "pie": 2363,
      "Ġgeword": 2364,
      "ĠBybel": 2365,
      "ution": 2366,
      "Ġnav": 2367,
      "Ġgewe": 2368,
      "ĠNet": 2369,
      "elaat": 2370,
      "Ġschool": 2371,
      "05": 2372,
      "Ġliggaam": 2373,
      "ĠVrou": 2374,
      "Ġknown": 2375,
      "Ġseason": 2376,
      "Ġbang": 2377,
      "Ġtweede": 2378,
      "Ġsecond": 2379,
      "Ġvoer": 2380,
      "ĠIsi": 2381,
      "Ġpolisie": 2382,
      "ĠVry": 2383,
      "Ġpass": 2384,
      "ished": 2385,
      "ĠFl": 2386,
      "Ġhigh": 2387,
      "Ġbab": 2388,
      "Ġvriend": 2389,
      "stem": 2390,
      "olgens": 2391,
      "pre": 2392,
      "kh": 2393,
      "wal": 2394,
      "qh": 2395,
      "Ġkg": 2396,
      "Ġding": 2397,
      "Ġverg": 2398,
      "Âł": 2399,
      "Ġgesien": 2400,
      "ior": 2401,
      "urch": 2402,
      "Ġbeing": 2403,
      "Ġnood": 2404,
      "aart": 2405,
      "ĠâĢĭ": 2406,
      "Ġyear": 2407,
      "Ġbrand": 2408,
      "Ġjare": 2409,
      "Ġnum": 2410,
      "Ġenig": 2411,
      "Ġjo": 2412,
      "Ġsent": 2413,
      "iza": 2414,
      "ĠRep": 2415,
      "eerde": 2416,
      "Ġway": 2417,
      "Ġverkoop": 2418,
      "Ġgegee": 2419,
      "Ch": 2420,
      "Ġ2010": 2421,
      "oka": 2422,
      "inga": 2423,
      "Ġpat": 2424,
      "spraak": 2425,
      "inder": 2426,
      "Ġlar": 2427,
      "ĠlÃª": 2428,
      "Ġwag": 2429,
      "Hoe": 2430,
      "til": 2431,
      "hamb": 2432,
      "ette": 2433,
      "elela": 2434,
      "ada": 2435,
      "wi": 2436,
      "Ġsoort": 2437,
      "Ġgeloof": 2438,
      "ĠGen": 2439,
      "Ġsame": 2440,
      "Ġbuite": 2441,
      "Ġlet": 2442,
      "Ġlos": 2443,
      "ume": 2444,
      "stit": 2445,
      "other": 2446,
      "Ġondersoek": 2447,
      "antwoord": 2448,
      "Ġdire": 2449,
      "Ġgemeenskap": 2450,
      "Ġpot": 2451,
      "Ġnom": 2452,
      "iaal": 2453,
      "ful": 2454,
      "Nkulunkulu": 2455,
      "rede": 2456,
      "osi": 2457,
      "Ġbesig": 2458,
      "handel": 2459,
      "Ġalbum": 2460,
      "hek": 2461,
      "ĠĠ": 2462,
      "Ġtaal": 2463,
      "Ġ2011": 2464,
      "Ġink": 2465,
      "stelling": 2466,
      "inal": 2467,
      "Ġsaak": 2468,
      "Ġthrough": 2469,
      "uts": 2470,
      "Ġdec": 2471,
      "Ġtele": 2472,
      "Ġmany": 2473,
      "aard": 2474,
      "Ġest": 2475,
      "Ġsiek": 2476,
      "Ġverm": 2477,
      "ages": 2478,
      "ĠAanlyn": 2479,
      "ica": 2480,
      "Ã«n": 2481,
      "okus": 2482,
      "Ġent": 2483,
      "ideos": 2484,
      "Ġlaaste": 2485,
      "ined": 2486,
      "raai": 2487,
      "ukkig": 2488,
      "ON": 2489,
      "Ġenk": 2490,
      "Ġgeleent": 2491,
      "Ġtoek": 2492,
      "ĠDec": 2493,
      "Ġfoto": 2494,
      "Ġskoon": 2495,
      "Ġbecame": 2496,
      "07": 2497,
      "Le": 2498,
      "Ġduidelik": 2499,
      "ping": 2500,
      "Ġung": 2501,
      "ĠâĢĭâĢĭ": 2502,
      "hluk": 2503,
      "bes": 2504,
      "ĠReg": 2505,
      "Ġ28": 2506,
      "oekom": 2507,
      "ĠKaap": 2508,
      "oman": 2509,
      "Ġmaande": 2510,
      "hol": 2511,
      "01": 2512,
      "Ġarea": 2513,
      "Ġhulp": 2514,
      "teen": 2515,
      "ology": 2516,
      "apan": 2517,
      "Ġplant": 2518,
      "ograph": 2519,
      "Ġminute": 2520,
      "ball": 2521,
      "iÃ«le": 2522,
      "hang": 2523,
      "Ġwaarin": 2524,
      "iedenis": 2525,
      "Ġwoon": 2526,
      "annes": 2527,
      "Hy": 2528,
      "Ġbuil": 2529,
      "Ġmotor": 2530,
      "ĠAnd": 2531,
      "ĠUS": 2532,
      "Ġtit": 2533,
      "rop": 2534,
      "Ġwen": 2535,
      "Ġcou": 2536,
      "Ġapp": 2537,
      "Ġhore": 2538,
      "06": 2539,
      "ural": 2540,
      "Ġany": 2541,
      "ract": 2542,
      "qin": 2543,
      "Ġplat": 2544,
      "Ġlei": 2545,
      "Ġgroei": 2546,
      "ists": 2547,
      "ĠnÃ¡": 2548,
      "imes": 2549,
      "Ġ195": 2550,
      "Ġ26": 2551,
      "Ġdevelop": 2552,
      "Ġsukses": 2553,
      "yg": 2554,
      "voorbeeld": 2555,
      "Ġoud": 2556,
      "tuig": 2557,
      "ĠBo": 2558,
      "lish": 2559,
      "Ġep": 2560,
      "ĠYork": 2561,
      "Ġtla": 2562,
      "ĠBro": 2563,
      "Ġback": 2564,
      "Ġkat": 2565,
      "//": 2566,
      "andle": 2567,
      "ĠHou": 2568,
      "urr": 2569,
      "Ġgod": 2570,
      "ible": 2571,
      "ĠWorld": 2572,
      "ives": 2573,
      "Ġtrek": 2574,
      "neem": 2575,
      "ner": 2576,
      "sebenzi": 2577,
      "Ġtip": 2578,
      "Ġakt": 2579,
      "Ġcre": 2580,
      "aling": 2581,
      "Ġ2009": 2582,
      "day": 2583,
      "Ġwebwerf": 2584,
      "Ġdif": 2585,
      "Ġvor": 2586,
      "Ġbefore": 2587,
      "Ġses": 2588,
      "oue": 2589,
      "Ġâ": 2590,
      "ient": 2591,
      "ĠHer": 2592,
      "Ġvolgens": 2593,
      "Ġbou": 2594,
      "Ġnuus": 2595,
      "apt": 2596,
      "wenza": 2597,
      "Ġverloor": 2598,
      "Ġmoeilik": 2599,
      "aam": 2600,
      "Ġown": 2601,
      "ikaanse": 2602,
      "ves": 2603,
      "itt": 2604,
      "Ġdiens": 2605,
      "29": 2606,
      "ĠPol": 2607,
      "Ġparty": 2608,
      "ĠNie": 2609,
      "Ġvyf": 2610,
      "ĠAll": 2611,
      "Ġchar": 2612,
      "tein": 2613,
      "iteite": 2614,
      "Ġverwag": 2615,
      "Ġspan": 2616,
      "://": 2617,
      "Ġ2008": 2618,
      "Ġ27": 2619,
      "Ġvolk": 2620,
      "Ġukub": 2621,
      "Ġtrad": 2622,
      "Ġtak": 2623,
      "Ġgrootste": 2624,
      "ired": 2625,
      "ĠWill": 2626,
      "Is": 2627,
      "fund": 2628,
      "Ġpriv": 2629,
      "izi": 2630,
      "Ġagainst": 2631,
      "agtige": 2632,
      "Ġekonom": 2633,
      "Ġfour": 2634,
      "Ġhl": 2635,
      "Ġnez": 2636,
      "Hierdie": 2637,
      "Ġpost": 2638,
      "ĠAustral": 2639,
      "Ġlife": 2640,
      "Ġhoop": 2641,
      "uta": 2642,
      "uny": 2643,
      "Ġhoor": 2644,
      "omen": 2645,
      "edert": 2646,
      "stad": 2647,
      "ature": 2648,
      "Ġgore": 2649,
      "vernment": 2650,
      "ized": 2651,
      "Ġincluding": 2652,
      "Ġaanvaar": 2653,
      "ĠWest": 2654,
      "oria": 2655,
      "Ġwin": 2656,
      "Ġaanv": 2657,
      "ĠOctober": 2658,
      "ĠStates": 2659,
      "Ġnt": 2660,
      "Ġvanaf": 2661,
      "che": 2662,
      "elele": 2663,
      "Ġvinnig": 2664,
      "Ġdon": 2665,
      "Ġleef": 2666,
      "Ġshow": 2667,
      "kamer": 2668,
      "Ð°": 2669,
      "Ġrece": 2670,
      "40": 2671,
      "intlik": 2672,
      "Ġgesond": 2673,
      "Ġindivid": 2674,
      "Ġstrateg": 2675,
      "imp": 2676,
      "Ġlong": 2677,
      "ollege": 2678,
      "Ġrecord": 2679,
      "Ġtegn": 2680,
      "OR": 2681,
      "Ġadd": 2682,
      "ĠPar": 2683,
      "Ġay": 2684,
      "stige": 2685,
      "ynlik": 2686,
      "alled": 2687,
      "merk": 2688,
      "hul": 2689,
      "Ġko": 2690,
      "Ġbepaal": 2691,
      "Ġly": 2692,
      "Ġopt": 2693,
      "Ġvoordat": 2694,
      "Ġ50": 2695,
      "Ġrep": 2696,
      "ĠIntern": 2697,
      "Ġwed": 2698,
      "Ġmiddel": 2699,
      "ctions": 2700,
      "Ġwhile": 2701,
      "ĠSm": 2702,
      "ET": 2703,
      "Ġbona": 2704,
      "wane": 2705,
      "Ġfr": 2706,
      "ĠNational": 2707,
      "Ġkwaye": 2708,
      "ĠAfrika": 2709,
      "Ġfamilie": 2710,
      "Op": 2711,
      "enzisa": 2712,
      "orts": 2713,
      "Ġonts": 2714,
      "gesk": 2715,
      "ĠAp": 2716,
      "ĠCent": 2717,
      "Ġsur": 2718,
      "ĠAfter": 2719,
      "wan": 2720,
      "Ġuma": 2721,
      "oep": 2722,
      "IS": 2723,
      "Ġkul": 2724,
      "Ġresp": 2725,
      "Ġboth": 2726,
      "Ġfa": 2727,
      "Ġgeniet": 2728,
      "Ġaanb": 2729,
      "uman": 2730,
      "ee": 2731,
      "Ġdaarop": 2732,
      "Ġry": 2733,
      "Ġder": 2734,
      "Om": 2735,
      "oorsaak": 2736,
      "esi": 2737,
      "osp": 2738,
      "wever": 2739,
      "Ġrest": 2740,
      "Ġdok": 2741,
      "Ġappe": 2742,
      "Ġkennis": 2743,
      "Ġuy": 2744,
      "mark": 2745,
      "Ġtem": 2746,
      "laai": 2747,
      "ently": 2748,
      "Ð¾": 2749,
      "Ġul": 2750,
      "ĠKle": 2751,
      "haw": 2752,
      "skappe": 2753,
      "ices": 2754,
      "Ġverwys": 2755,
      "gemaak": 2756,
      "Ġsign": 2757,
      "Ġregering": 2758,
      "prek": 2759,
      "unte": 2760,
      "Ġverlede": 2761,
      "med": 2762,
      "ĠIm": 2763,
      "very": 2764,
      "Ġsaid": 2765,
      "ĠSchool": 2766,
      "ues": 2767,
      "Ġstart": 2768,
      "ĠDr": 2769,
      "wak": 2770,
      "08": 2771,
      "Ġleg": 2772,
      "mel": 2773,
      "atiewe": 2774,
      "ĠPaul": 2775,
      "ague": 2776,
      "asting": 2777,
      "best": 2778,
      "Ġgekom": 2779,
      "Ġbesker": 2780,
      "Ġouers": 2781,
      "ĠState": 2782,
      "Ġprodu": 2783,
      "ause": 2784,
      "Ġbehandel": 2785,
      "Ġmiljoen": 2786,
      "Ġveroorsaak": 2787,
      "unye": 2788,
      "het": 2789,
      "ening": 2790,
      "ĠAfrikaanse": 2791,
      "ads": 2792,
      "AT": 2793,
      "sig": 2794,
      "Ġhoeveel": 2795,
      "Ġspesif": 2796,
      "Ġlug": 2797,
      "ider": 2798,
      "Ġsong": 2799,
      "ird": 2800,
      "Ġbus": 2801,
      "Ġdu": 2802,
      "press": 2803,
      "irl": 2804,
      "Ġsak": 2805,
      "vent": 2806,
      "gelyk": 2807,
      "ler": 2808,
      "Ġmans": 2809,
      "gang": 2810,
      "Ġsam": 2811,
      "Ġama": 2812,
      "ĠhoÃ«": 2813,
      "Ġbereik": 2814,
      "yse": 2815,
      "oi": 2816,
      "emp": 2817,
      "orge": 2818,
      "atiese": 2819,
      "ersk": 2820,
      "Ġdig": 2821,
      "Ġbank": 2822,
      "Ġsommige": 2823,
      "ĠWes": 2824,
      "Ġyour": 2825,
      "ĠBar": 2826,
      "etsa": 2827,
      "onne": 2828,
      "Ġbetrok": 2829,
      "Ġuse": 2830,
      "ission": 2831,
      "Ġmar": 2832,
      "heids": 2833,
      "rasie": 2834,
      "Ġident": 2835,
      "Ġ29": 2836,
      "Ġvlak": 2837,
      "jalo": 2838,
      "Ġaandele": 2839,
      "anje": 2840,
      "Ġslaap": 2841,
      "ĠPark": 2842,
      "Ġmas": 2843,
      "di": 2844,
      "ĠMarch": 2845,
      "Ġprobleem": 2846,
      "Ġresult": 2847,
      "Th": 2848,
      "book": 2849,
      "Ġasook": 2850,
      "Ġverskyn": 2851,
      "ÃŃ": 2852,
      "uister": 2853,
      "eny": 2854,
      "arty": 2855,
      "ĠHa": 2856,
      "ĠMin": 2857,
      "Ġdog": 2858,
      "Ġmedia": 2859,
      "okho": 2860,
      "Ġkomb": 2861,
      "urende": 2862,
      "Ġgroter": 2863,
      "Ġgewoonlik": 2864,
      "ellop": 2865,
      "Ġrug": 2866,
      "Ġnaby": 2867,
      "Ã«ls": 2868,
      "ument": 2869,
      "ĠVolwasse": 2870,
      "Ġtw": 2871,
      "03": 2872,
      "Ġeintlik": 2873,
      "09": 2874,
      "Ġstate": 2875,
      "04": 2876,
      "Ġsitu": 2877,
      "iseb": 2878,
      "Ġvoed": 2879,
      "Ġeerder": 2880,
      "Ġregtig": 2881,
      "geveer": 2882,
      "Ġ193": 2883,
      "Ġext": 2884,
      "staan": 2885,
      "Ġdruk": 2886,
      "ĠHier": 2887,
      "On": 2888,
      "alm": 2889,
      "urb": 2890,
      "Ġband": 2891,
      "ĠMedia": 2892,
      "Ġfet": 2893,
      "Ġfeit": 2894,
      "endes": 2895,
      "Ġoa": 2896,
      "Ġorig": 2897,
      "wers": 2898,
      "pan": 2899,
      "Ġsee": 2900,
      "Ġann": 2901,
      "vertensies": 2902,
      "Ġsos": 2903,
      "vind": 2904,
      "ĠAk": 2905,
      "dra": 2906,
      "ĠJune": 2907,
      "ï¿": 2908,
      "Ġnumber": 2909,
      "ĠMat": 2910,
      "Ng": 2911,
      "Ġgenoem": 2912,
      "ï¿½": 2913,
      "aliteit": 2914,
      "ellings": 2915,
      "Ġuntil": 2916,
      "Ġgame": 2917,
      "ĠTer": 2918,
      "ora": 2919,
      "aff": 2920,
      "Ġvroe": 2921,
      "Ġvraag": 2922,
      "ineer": 2923,
      "preek": 2924,
      "ĠCol": 2925,
      "Afrikaanse": 2926,
      "Ġwrit": 2927,
      "ret": 2928,
      "Ġuite": 2929,
      "Ġyoku": 2930,
      "ĠSch": 2931,
      "ĠDi": 2932,
      "Ġq": 2933,
      "plan": 2934,
      "dele": 2935,
      "okk": 2936,
      "ĠJanuary": 2937,
      "Ġterm": 2938,
      "volle": 2939,
      "ised": 2940,
      "Ġstat": 2941,
      "Ġbloed": 2942,
      "ĠRo": 2943,
      "Ġlapho": 2944,
      "xx": 2945,
      "veral": 2946,
      "Ġmaand": 2947,
      "99": 2948,
      "ble": 2949,
      "Ġbeskou": 2950,
      "yt": 2951,
      "hop": 2952,
      "kant": 2953,
      "ieg": 2954,
      "ĠIsra": 2955,
      "erstel": 2956,
      "Ġproses": 2957,
      "Ġgevoel": 2958,
      "ĠEm": 2959,
      "Ġdata": 2960,
      "ĠRes": 2961,
      "qond": 2962,
      "leiding": 2963,
      "vir": 2964,
      "Ġgehoor": 2965,
      "ĠCan": 2966,
      "Ġbeheer": 2967,
      "Ġbal": 2968,
      "indelik": 2969,
      "umela": 2970,
      "Ġthese": 2971,
      "ileyo": 2972,
      "ĠPret": 2973,
      "ĠJuly": 2974,
      "alif": 2975,
      "ĠANC": 2976,
      "Ġneg": 2977,
      "ĠÂ»": 2978,
      "Ġvak": 2979,
      "Maar": 2980,
      "Ġonderwys": 2981,
      "ĠâĢ¦": 2982,
      "....": 2983,
      "onal": 2984,
      "Ġstelsel": 2985,
      "ared": 2986,
      "oit": 2987,
      "Ðµ": 2988,
      "Ġnges": 2989,
      "roue": 2990,
      "lam": 2991,
      "aut": 2992,
      "gele": 2993,
      "Ġil": 2994,
      "eral": 2995,
      "ility": 2996,
      "Ġseun": 2997,
      "rict": 2998,
      "Ġngo": 2999,
      "Ġmos": 3000,
      "oci": 3001,
      "iving": 3002,
      "ually": 3003,
      "Ġngu": 3004,
      "Ġgekry": 3005,
      "Ġsoms": 3006,
      "iness": 3007,
      "ieÃ«": 3008,
      "Ġuur": 3009,
      "gra": 3010,
      "Ġgehe": 3011,
      "ruis": 3012,
      "Ġprofession": 3013,
      "saam": 3014,
      "ĠSa": 3015,
      "riende": 3016,
      "lex": 3017,
      "Ġwon": 3018,
      "Ġmoder": 3019,
      "Ġfamily": 3020,
      "uli": 3021,
      "reen": 3022,
      "Ġskul": 3023,
      "An": 3024,
      "alth": 3025,
      "ansi": 3026,
      "ras": 3027,
      "hand": 3028,
      "Ġpublic": 3029,
      "Ġbon": 3030,
      "ĠII": 3031,
      "chn": 3032,
      "Ġmees": 3033,
      "que": 3034,
      "udie": 3035,
      "Ġskry": 3036,
      "Ġsekere": 3037,
      "peel": 3038,
      "yr": 3039,
      "Ġris": 3040,
      "Ġens": 3041,
      "Ġizi": 3042,
      "Ġdro": 3043,
      "stra": 3044,
      "Ġpresident": 3045,
      "ĠCity": 3046,
      "Ġaangesien": 3047,
      "cts": 3048,
      "Jy": 3049,
      "unde": 3050,
      "ading": 3051,
      "Ġaarde": 3052,
      "stig": 3053,
      "Ġvolle": 3054,
      "jar": 3055,
      "Ġperform": 3056,
      "eu": 3057,
      "Ġseries": 3058,
      "Ġprom": 3059,
      "boek": 3060,
      "uin": 3061,
      "oneel": 3062,
      "ĠEnk": 3063,
      "punt": 3064,
      "uele": 3065,
      "Ġbot": 3066,
      "ĠHar": 3067,
      "Ġdep": 3068,
      "ĠRuss": 3069,
      "yder": 3070,
      "Ġdesign": 3071,
      "Ġwatter": 3072,
      "laat": 3073,
      "li": 3074,
      "ĠHist": 3075,
      "ĠGu": 3076,
      "maat": 3077,
      "Ġbesef": 3078,
      "ĠAmerikaanse": 3079,
      "Ġvrug": 3080,
      "Ã¼": 3081,
      "Ġartikel": 3082,
      "Ġverseker": 3083,
      "koms": 3084,
      "Ġmater": 3085,
      "ĠRob": 3086,
      "hay": 3087,
      "ross": 3088,
      "ĠMos": 3089,
      "02": 3090,
      "oorte": 3091,
      "ney": 3092,
      "Ã¶": 3093,
      "Ġposit": 3094,
      "Ġverhoog": 3095,
      "enge": 3096,
      "weg": 3097,
      "Ġtuis": 3098,
      "ience": 3099,
      "jor": 3100,
      "ratis": 3101,
      "ĠWar": 3102,
      "ray": 3103,
      "ukela": 3104,
      "cept": 3105,
      "omblik": 3106,
      "temal": 3107,
      "likse": 3108,
      "Ġuitst": 3109,
      "Ġcount": 3110,
      "ales": 3111,
      "Ġverkl": 3112,
      "Ġkol": 3113,
      "xt": 3114,
      "rem": 3115,
      "Ġunivers": 3116,
      "wend": 3117,
      "Ġvern": 3118,
      "Ġlike": 3119,
      "bet": 3120,
      "ĠJohannes": 3121,
      "Ġtek": 3122,
      "ĠUm": 3123,
      "Ã¯n": 3124,
      "Ġkuy": 3125,
      "Ġnavors": 3126,
      "uff": 3127,
      "ĠBel": 3128,
      "ĠKa": 3129,
      "ĠSup": 3130,
      "ima": 3131,
      "asi": 3132,
      "leis": 3133,
      "andering": 3134,
      "net": 3135,
      "ereg": 3136,
      "Ġkuph": 3137,
      "Ġinsluit": 3138,
      "Ġbook": 3139,
      "volg": 3140,
      "ĠDecember": 3141,
      "isek": 3142,
      "ansie": 3143,
      "anse": 3144,
      "oes": 3145,
      "embers": 3146,
      "ville": 3147,
      "Ġlik": 3148,
      "pres": 3149,
      "Ġ>": 3150,
      "ĠâĢĶ": 3151,
      "kund": 3152,
      "reer": 3153,
      "ta": 3154,
      "Ġbad": 3155,
      "Ġgeskryf": 3156,
      "Ġbetrokke": 3157,
      "omo": 3158,
      "ĠMus": 3159,
      "Ġgeskiedenis": 3160,
      "reet": 3161,
      "Ġngen": 3162,
      "Ġindien": 3163,
      "Ġbok": 3164,
      "ĠKon": 3165,
      "ulke": 3166,
      ".,": 3167,
      "Ġngoba": 3168,
      "Ġmusic": 3169,
      "Ġonthou": 3170,
      "iges": 3171,
      "nal": 3172,
      ".)": 3173,
      "ĠComp": 3174,
      "Ġverkies": 3175,
      "ulek": 3176,
      "yle": 3177,
      "ĠOf": 3178,
      "ĠMag": 3179,
      "ingi": 3180,
      "ugh": 3181,
      "Ġongeveer": 3182,
      "sc": 3183,
      "Ġmusiek": 3184,
      "teer": 3185,
      "Ġheeltemal": 3186,
      "oudig": 3187,
      "oei": 3188,
      "Ġfunk": 3189,
      "ĠCount": 3190,
      "Ġworld": 3191,
      "ĠMc": 3192,
      "Ġlab": 3193,
      "Ġpap": 3194,
      "Ġdown": 3195,
      "Ġwaarskynlik": 3196,
      "eerd": 3197,
      "ĠCo": 3198,
      "Ġgraag": 3199,
      "ĠKl": 3200,
      "ĠLou": 3201,
      "Dis": 3202,
      "Ġcontin": 3203,
      "ended": 3204,
      "Ġcalled": 3205,
      "ĠIsrael": 3206,
      "trek": 3207,
      "Ġmor": 3208,
      "hezulu": 3209,
      "Ġhistor": 3210,
      "lem": 3211,
      "inkel": 3212,
      "Ġprobleme": 3213,
      "Ġoomblik": 3214,
      "Ġkamer": 3215,
      "nis": 3216,
      "ained": 3217,
      "Ġverskil": 3218,
      "enig": 3219,
      "Ġnow": 3220,
      "itaal": 3221,
      "enb": 3222,
      "ress": 3223,
      "Ġhalf": 3224,
      "Ġreleased": 3225,
      "aksie": 3226,
      "Ġkult": 3227,
      "Ġrede": 3228,
      "ambi": 3229,
      "Ġdeb": 3230,
      "fon": 3231,
      "Ġdid": 3232,
      "hlobo": 3233,
      "lalo": 3234,
      "Ġbelangrike": 3235,
      "Ġyakho": 3236,
      "Ġlat": 3237,
      "Ġvoet": 3238,
      "Ġgereg": 3239,
      "Ġenerg": 3240,
      "Ġsuc": 3241,
      "Ġoffic": 3242,
      "pers": 3243,
      "ĠNo": 3244,
      "Ġsle": 3245,
      "Ġcommun": 3246,
      "ĠGl": 3247,
      "ĠMil": 3248,
      "??": 3249,
      "mat": 3250,
      "ĠoÃ«": 3251,
      "IT": 3252,
      "esu": 3253,
      "Ġafgel": 3254,
      "Ġsowel": 3255,
      "hout": 3256,
      "ĠIr": 3257,
      "ewel": 3258,
      "US": 3259,
      "Ġbevat": 3260,
      "Ġhof": 3261,
      "Ġnatuurlik": 3262,
      "Ġbehoort": 3263,
      "ĠEnkellop": 3264,
      "Ġstil": 3265,
      "ĠGerman": 3266,
      "ĠAfrikan": 3267,
      "Ġbeslis": 3268,
      "ĠLond": 3269,
      "Ġverhouding": 3270,
      "ning": 3271,
      "Ġvriende": 3272,
      "ĠKan": 3273,
      "ily": 3274,
      "ival": 3275,
      "week": 3276,
      "Ġreis": 3277,
      "jek": 3278,
      "Ġsoveel": 3279,
      "Ġplayed": 3280,
      "ekende": 3281,
      "Ġrig": 3282,
      "Ġvo": 3283,
      "Ġnje": 3284,
      "Ġgun": 3285,
      "Ġteenoor": 3286,
      "ĠSoek": 3287,
      "ĠHis": 3288,
      "olf": 3289,
      "izo": 3290,
      "Ġlib": 3291,
      "athu": 3292,
      "ĠBaie": 3293,
      "33": 3294,
      "ĠGo": 3295,
      "Ġ31": 3296,
      "anning": 3297,
      "Ġplace": 3298,
      "stru": 3299,
      "ulation": 3300,
      "uits": 3301,
      "ady": 3302,
      "ments": 3303,
      "wards": 3304,
      "Ġdiep": 3305,
      "spel": 3306,
      "Ġonline": 3307,
      "Ġgeleentheid": 3308,
      "ody": 3309,
      "perk": 3310,
      "ights": 3311,
      "tog": 3312,
      "Ġoorspr": 3313,
      "rand": 3314,
      "Ġantwoord": 3315,
      "umel": 3316,
      "Ġew": 3317,
      "Ġbinn": 3318,
      "Ġ2007": 3319,
      "usa": 3320,
      "Ġmidd": 3321,
      "ubo": 3322,
      "akk": 3323,
      "Ġzok": 3324,
      "idge": 3325,
      "Ġtoekoms": 3326,
      "Ġwes": 3327,
      "ĠToe": 3328,
      "Ġaantal": 3329,
      "Ġreal": 3330,
      "aster": 3331,
      "Ġsil": 3332,
      "ius": 3333,
      "Ġrekening": 3334,
      "holo": 3335,
      "Ġgovernment": 3336,
      "ĠMal": 3337,
      "Ġzonke": 3338,
      "Ġong": 3339,
      "uke": 3340,
      "deur": 3341,
      "ĠBlack": 3342,
      "ita": 3343,
      "rein": 3344,
      "umana": 3345,
      "Ġplaaslike": 3346,
      "Ġgesin": 3347,
      "ram": 3348,
      "Ġsupport": 3349,
      "ĠDav": 3350,
      "onak": 3351,
      "Ġlangs": 3352,
      "ĠFebruary": 3353,
      "Ġheld": 3354,
      "ĠNorth": 3355,
      "Ġnak": 3356,
      "ukho": 3357,
      "AL": 3358,
      "zin": 3359,
      "Ġokanye": 3360,
      "ida": 3361,
      "gawe": 3362,
      "thi": 3363,
      "Ġ40": 3364,
      "Ġmass": 3365,
      "ĠKing": 3366,
      "Ġexp": 3367,
      "45": 3368,
      "thern": 3369,
      "Ġ08": 3370,
      "tjies": 3371,
      "laan": 3372,
      "irc": 3373,
      "Ġukuth": 3374,
      "tober": 3375,
      "vaardig": 3376,
      "Ġgevind": 3377,
      "ĠThey": 3378,
      "lin": 3379,
      "Ġvere": 3380,
      "hezu": 3381,
      "Ġmake": 3382,
      "oring": 3383,
      "Ġomgewing": 3384,
      "ĠAfrica": 3385,
      "ones": 3386,
      "geneem": 3387,
      "adem": 3388,
      "ID": 3389,
      "Ġbyvoorbeeld": 3390,
      "unc": 3391,
      "Ġverband": 3392,
      "Ġcity": 3393,
      "Ġadv": 3394,
      "illion": 3395,
      "Ġearly": 3396,
      "aseb": 3397,
      "raag": 3398,
      "uced": 3399,
      "Ġgehou": 3400,
      "Ġsagte": 3401,
      "ĠJapan": 3402,
      "gene": 3403,
      "35": 3404,
      "Sy": 3405,
      "icip": 3406,
      "Ġporno": 3407,
      "Ġkhona": 3408,
      "ivier": 3409,
      "Ġern": 3410,
      "Ġgay": 3411,
      "Ver": 3412,
      "iya": 3413,
      "Ġec": 3414,
      "skrif": 3415,
      "Ġhandels": 3416,
      "ĠDep": 3417,
      "ĠFil": 3418,
      "Ġswe": 3419,
      "Ġdiffer": 3420,
      "ĠWaar": 3421,
      "Ġverduidelik": 3422,
      "han": 3423,
      "ĠAss": 3424,
      "AS": 3425,
      "Ġbeperk": 3426,
      "odes": 3427,
      "ĠSal": 3428,
      "hlala": 3429,
      "urt": 3430,
      "Ġcareer": 3431,
      "Ġseveral": 3432,
      "ĠPet": 3433,
      "iam": 3434,
      "anger": 3435,
      "aande": 3436,
      "cw": 3437,
      "goed": 3438,
      "Ġhome": 3439,
      "ĠEen": 3440,
      "Ġdaarna": 3441,
      "hank": 3442,
      "Ġkleur": 3443,
      "ĠÃ": 3444,
      "Ġslag": 3445,
      "loss": 3446,
      "middel": 3447,
      "oli": 3448,
      "ured": 3449,
      "ussy": 3450,
      "rew": 3451,
      "ĠEurope": 3452,
      "ĠGratis": 3453,
      "stuk": 3454,
      "Ġwer": 3455,
      "Ġkons": 3456,
      "Ð¸": 3457,
      "Ġlw": 3458,
      "My": 3459,
      "âĢĿ.": 3460,
      "iets": 3461,
      "Ġnang": 3462,
      "Ġverantwoord": 3463,
      "Ġgroup": 3464,
      "uut": 3465,
      "Ġjust": 3466,
      "ags": 3467,
      "ince": 3468,
      "Ġmembers": 3469,
      "hoef": 3470,
      "minder": 3471,
      "Ġezin": 3472,
      "oute": 3473,
      "ford": 3474,
      "ici": 3475,
      "Ġmeng": 3476,
      "ically": 3477,
      "won": 3478,
      "Ġuz": 3479,
      "ootball": 3480,
      "etse": 3481,
      "qo": 3482,
      "ethu": 3483,
      "Ġnoku": 3484,
      "amu": 3485,
      "ĠEngel": 3486,
      "Ġav": 3487,
      "grond": 3488,
      "Ġpo": 3489,
      "anzi": 3490,
      "Ġhande": 3491,
      "oela": 3492,
      "ows": 3493,
      "Ġuits": 3494,
      "ĠBes": 3495,
      "Ġcould": 3496,
      "Ġsok": 3497,
      "Ġgedeel": 3498,
      "nie": 3499,
      "acebook": 3500,
      "Ġwiss": 3501,
      "Ġsince": 3502,
      "esha": 3503,
      "aur": 3504,
      "Ġref": 3505,
      "mag": 3506,
      "Ġja": 3507,
      "ilige": 3508,
      "osted": 3509,
      "37": 3510,
      "hose": 3511,
      "moed": 3512,
      "Ġsommer": 3513,
      "eme": 3514,
      "Ġoog": 3515,
      "ĠHol": 3516,
      "hoewel": 3517,
      "ogg": 3518,
      "row": 3519,
      "adering": 3520,
      "ison": 3521,
      "Å¡a": 3522,
      "ĠPres": 3523,
      "Ġday": 3524,
      "Ġruim": 3525,
      "Ġgereeld": 3526,
      "Ġfollowing": 3527,
      "ask": 3528,
      "60": 3529,
      "enze": 3530,
      "uj": 3531,
      "Ġbeskerm": 3532,
      "Ġformer": 3533,
      "hof": 3534,
      "istiese": 3535,
      "Ġtans": 3536,
      "Ġhar": 3537,
      "ĠGees": 3538,
      "uthor": 3539,
      "ĠMaart": 3540,
      "iefde": 3541,
      "Ġstorie": 3542,
      "Ġsosiale": 3543,
      "Met": 3544,
      "Ġimm": 3545,
      "Ġnoem": 3546,
      "Ġmain": 3547,
      "Ġverwyder": 3548,
      "Ġsedert": 3549,
      "liks": 3550,
      "lae": 3551,
      "ĠTV": 3552,
      "elandse": 3553,
      "Ġsol": 3554,
      "Ġwaarop": 3555,
      "ryse": 3556,
      "Ġerk": 3557,
      "Ġhouse": 3558,
      "imi": 3559,
      "ĠMei": 3560,
      "uzo": 3561,
      "Ġplatform": 3562,
      "Ġfinans": 3563,
      "Ġlewer": 3564,
      "etso": 3565,
      "ikasie": 3566,
      "Ġcour": 3567,
      "amel": 3568,
      "erus": 3569,
      "rap": 3570,
      "ĠWanneer": 3571,
      "work": 3572,
      "Ġverge": 3573,
      "Ġnes": 3574,
      "Ġvery": 3575,
      "rukt": 3576,
      "ĠThere": 3577,
      "akte": 3578,
      "iele": 3579,
      "fl": 3580,
      "Ġleng": 3581,
      "ighede": 3582,
      "bal": 3583,
      "asino": 3584,
      "Ġhtt": 3585,
      "dek": 3586,
      "ides": 3587,
      "ĠKar": 3588,
      "Ġig": 3589,
      "Ġduur": 3590,
      "her": 3591,
      "Ġontwerp": 3592,
      "Ġverspre": 3593,
      "Ġwhat": 3594,
      "Ġsmall": 3595,
      "ued": 3596,
      "Ġliter": 3597,
      "ĠKerk": 3598,
      "Ġcol": 3599,
      "Ġdaag": 3600,
      "ifiseer": 3601,
      "Ġngam": 3602,
      "ĠMo": 3603,
      "Ġafgelope": 3604,
      "essie": 3605,
      "enes": 3606,
      "Ġenigste": 3607,
      "iÃ«n": 3608,
      "ĠMod": 3609,
      "Ġjouself": 3610,
      "moÃ«": 3611,
      "hiq": 3612,
      "Ġtoon": 3613,
      "Ġdesc": 3614,
      "Ġtien": 3615,
      "ĠWil": 3616,
      "etjies": 3617,
      "Ġborn": 3618,
      "Ġreturn": 3619,
      "Ġfree": 3620,
      "Kaap": 3621,
      "Ġstuur": 3622,
      "imum": 3623,
      "Ġbegan": 3624,
      "Ġanal": 3625,
      "rus": 3626,
      "ĠBa": 3627,
      "ĠMer": 3628,
      "bs": 3629,
      "rust": 3630,
      "Ġarr": 3631,
      "Ġmeisie": 3632,
      "enye": 3633,
      "Ġukus": 3634,
      "Ġmov": 3635,
      "iety": 3636,
      "Ġpolitieke": 3637,
      "Vir": 3638,
      "rim": 3639,
      "Ġpersoonlike": 3640,
      "Ġsulke": 3641,
      "stof": 3642,
      "Ġaandag": 3643,
      "hib": 3644,
      "Ġid": 3645,
      "ildr": 3646,
      "Ġlaw": 3647,
      "ĠuM": 3648,
      "ĠPe": 3649,
      "Ġdek": 3650,
      "ĠPort": 3651,
      "oene": 3652,
      "Ġsystem": 3653,
      "aking": 3654,
      "ĠSer": 3655,
      "Ġngem": 3656,
      "Ġkook": 3657,
      "Ġnorm": 3658,
      "utha": 3659,
      "sem": 3660,
      "Ġgene": 3661,
      "uus": 3662,
      "orpor": 3663,
      "ards": 3664,
      "Ġgebied": 3665,
      "Ġvari": 3666,
      "vious": 3667,
      "ĠMark": 3668,
      "ording": 3669,
      "atal": 3670,
      "Ġdest": 3671,
      "ĠHigh": 3672,
      "Ġvoorraad": 3673,
      "komste": 3674,
      "ĠArt": 3675,
      "Ġaangeb": 3676,
      "ĠPretoria": 3677,
      "ĠMon": 3678,
      "ĠJunie": 3679,
      "rey": 3680,
      "Ġny": 3681,
      "Ġezing": 3682,
      "erings": 3683,
      "Ġgas": 3684,
      "31": 3685,
      "Ġmal": 3686,
      "ĠMeisies": 3687,
      "do": 3688,
      "Ġheer": 3689,
      "ekh": 3690,
      "okhu": 3691,
      "wood": 3692,
      "34": 3693,
      "ĠBra": 3694,
      "ĠFoto": 3695,
      "ambili": 3696,
      "minist": 3697,
      "Ġgelyk": 3698,
      "Ġeach": 3699,
      "Ġbol": 3700,
      "ĠJulie": 3701,
      "ÑĤ": 3702,
      "ji": 3703,
      "afel": 3704,
      "ipp": 3705,
      "Ġgereed": 3706,
      "Ġseb": 3707,
      "36": 3708,
      "diens": 3709,
      "LE": 3710,
      "ampions": 3711,
      "anis": 3712,
      "Ġalong": 3713,
      "ektr": 3714,
      "ending": 3715,
      "roep": 3716,
      "Ġeenvoudig": 3717,
      "Ġontwikkeling": 3718,
      "ĠMic": 3719,
      "Ġwaarom": 3720,
      "Ġcap": 3721,
      "Ġvoorsien": 3722,
      "Ġvrees": 3723,
      "ildren": 3724,
      "Ġonlang": 3725,
      "ĠAir": 3726,
      "uidige": 3727,
      "ĠAdvertensies": 3728,
      "Ġverdien": 3729,
      "ateg": 3730,
      "38": 3731,
      "ango": 3732,
      "Ġbesigheid": 3733,
      "Ġdel": 3734,
      "hlab": 3735,
      "ĠJac": 3736,
      "edi": 3737,
      "vl": 3738,
      "Ġgeest": 3739,
      "inger": 3740,
      "Ġweke": 3741,
      "Ġ2022": 3742,
      "lyf": 3743,
      "Ġrad": 3744,
      "iker": 3745,
      "Ġrisiko": 3746,
      "Ġmaatskappy": 3747,
      "ulwa": 3748,
      "ĠJou": 3749,
      "ĠBritish": 3750,
      "aand": 3751,
      "lose": 3752,
      "Ġhosp": 3753,
      "ĠVoor": 3754,
      "Ġour": 3755,
      "si": 3756,
      "ĠSwart": 3757,
      "Ġlink": 3758,
      "ĠSan": 3759,
      "Ġkam": 3760,
      "Ġline": 3761,
      "ĠEnglish": 3762,
      "rs": 3763,
      "Ġware": 3764,
      "Ġnat": 3765,
      "ĠNoord": 3766,
      "Ġkuphela": 3767,
      "Ġdorp": 3768,
      "ĠOktober": 3769,
      "verk": 3770,
      "Ġlast": 3771,
      "Ġbaba": 3772,
      "entaar": 3773,
      "Ġtoer": 3774,
      "Ġbeweeg": 3775,
      "oda": 3776,
      "Ġoef": 3777,
      "lock": 3778,
      "Ġherstel": 3779,
      "Uk": 3780,
      "Ġstop": 3781,
      "ucation": 3782,
      "ko": 3783,
      "ĠOu": 3784,
      "Ġasof": 3785,
      "Ġspe": 3786,
      "Ġgevra": 3787,
      "Ġbecause": 3788,
      "ĠAugustus": 3789,
      "Ġlande": 3790,
      "ĠJanuarie": 3791,
      "Ġstudie": 3792,
      "Ġwaarvan": 3793,
      "Ġouder": 3794,
      "Ġkwes": 3795,
      "Ġarg": 3796,
      "Ġalleen": 3797,
      "âĨ": 3798,
      "wag": 3799,
      "Ġocc": 3800,
      "UR": 3801,
      "lop": 3802,
      "Ġkuns": 3803,
      "Ġuiteindelik": 3804,
      "Ġbesonder": 3805,
      "bert": 3806,
      "aving": 3807,
      "Ġcompany": 3808,
      "Ġkomp": 3809,
      "yke": 3810,
      "Ġbloot": 3811,
      "ounc": 3812,
      "daad": 3813,
      "Ġclass": 3814,
      "olk": 3815,
      "Ġresep": 3816,
      "Ġontmoet": 3817,
      "Ġverminder": 3818,
      "mekaar": 3819,
      "asa": 3820,
      "itch": 3821,
      "Ġsig": 3822,
      "Ġske": 3823,
      "Ġkeuse": 3824,
      "ĠChina": 3825,
      "neming": 3826,
      "apha": 3827,
      "Ġlocal": 3828,
      "ando": 3829,
      "Ġpunt": 3830,
      "Ġtook": 3831,
      "wen": 3832,
      "iod": 3833,
      "weeg": 3834,
      "Pro": 3835,
      "Ġtoegang": 3836,
      "terk": 3837,
      "lands": 3838,
      "Ġhond": 3839,
      "Ġverbeter": 3840,
      "Ġstre": 3841,
      "ases": 3842,
      "Ġtiener": 3843,
      "ĠDesember": 3844,
      "ĠGra": 3845,
      "'t": 3846,
      "Ġwerklik": 3847,
      "reff": 3848,
      "ING": 3849,
      "ench": 3850,
      "ness": 3851,
      "ĠBin": 3852,
      "ĠPer": 3853,
      "amat": 3854,
      "Ġaard": 3855,
      "Ġaround": 3856,
      "Ġappro": 3857,
      "ĠLes": 3858,
      "blad": 3859,
      "Ġbelangrikste": 3860,
      "ateur": 3861,
      "ĠMaroela": 3862,
      "ollar": 3863,
      "Å¡o": 3864,
      "Ġwins": 3865,
      "Ġeens": 3866,
      "Ġbood": 3867,
      "Ñģ": 3868,
      "Ġuitvoer": 3869,
      "ym": 3870,
      "Ġveld": 3871,
      "yne": 3872,
      "Ġmajor": 3873,
      "gl": 3874,
      "Ġnem": 3875,
      "Ġgesig": 3876,
      "ĠHouse": 3877,
      "name": 3878,
      "vloed": 3879,
      "Ġvuur": 3880,
      "zwa": 3881,
      "Ġje": 3882,
      "woordig": 3883,
      "Ġgeweld": 3884,
      "ito": 3885,
      "Ġbeskryf": 3886,
      "au": 3887,
      "hale": 3888,
      "Ġaange": 3889,
      "Ġooit": 3890,
      "jarige": 3891,
      "bei": 3892,
      "39": 3893,
      "Ġfokus": 3894,
      "ongo": 3895,
      "Ġtake": 3896,
      "Ġmeisies": 3897,
      "Ġverantwoordelik": 3898,
      "Ġdraai": 3899,
      "iÃ«nte": 3900,
      "Ġtoest": 3901,
      "Ġdaarom": 3902,
      "Ġhoekom": 3903,
      "Ġhuidige": 3904,
      "Ġdui": 3905,
      "ĠSec": 3906,
      "Ġweens": 3907,
      "duk": 3908,
      "Ġhandelaars": 3909,
      "ĠOl": 3910,
      "unga": 3911,
      "Ġboeke": 3912,
      "enzeka": 3913,
      "Ar": 3914,
      "reed": 3915,
      "ibh": 3916,
      "umo": 3917,
      "Ġir": 3918,
      "Ġsake": 3919,
      "band": 3920,
      "onds": 3921,
      "Ġafs": 3922,
      "Ġdank": 3923,
      "Ġhead": 3924,
      "Ġmilit": 3925,
      "ĠUit": 3926,
      "Ġprodukte": 3927,
      "water": 3928,
      "Ġhang": 3929,
      "Ġalgemene": 3930,
      "omme": 3931,
      "Ġbehoef": 3932,
      "Ġconc": 3933,
      "edia": 3934,
      "idi": 3935,
      "Ġolie": 3936,
      "Ġrun": 3937,
      "abel": 3938,
      "round": 3939,
      "Ġverby": 3940,
      "Ġryk": 3941,
      "à¤": 3942,
      "Ġouer": 3943,
      "Ġestab": 3944,
      "skool": 3945,
      "Ġorganis": 3946,
      "Ġizinto": 3947,
      "Ġprakt": 3948,
      "Ġmakelaars": 3949,
      "Ph": 3950,
      "Ġhel": 3951,
      "etsh": 3952,
      "ĠTrading": 3953,
      "Ġexper": 3954,
      "Ġvoeg": 3955,
      "ae": 3956,
      "yc": 3957,
      "OS": 3958,
      "Ġemp": 3959,
      "Ġuf": 3960,
      "Ġhoef": 3961,
      "bere": 3962,
      "Ġ2006": 3963,
      "ided": 3964,
      "tsh": 3965,
      "Ġclub": 3966,
      "Ġdom": 3967,
      "Ġrequ": 3968,
      "Ġaanbe": 3969,
      "werking": 3970,
      "lief": 3971,
      "Ġreeks": 3972,
      "aris": 3973,
      "hetha": 3974,
      "ĠAg": 3975,
      "48": 3976,
      "oogle": 3977,
      "elekile": 3978,
      "Ġgebou": 3979,
      "Ġlys": 3980,
      "Ġsem": 3981,
      "riek": 3982,
      "Ð½": 3983,
      "Ġbased": 3984,
      "Ġinform": 3985,
      "laag": 3986,
      "Ġkwez": 3987,
      "ota": 3988,
      "ondig": 3989,
      "Ġwind": 3990,
      "ĠAcc": 3991,
      "Ġinsp": 3992,
      "Van": 3993,
      "pect": 3994,
      "Ġverskaf": 3995,
      "Ġmember": 3996,
      "otel": 3997,
      "Ġderde": 3998,
      "Ġlid": 3999,
      "iki": 4000,
      "ography": 4001,
      "Ġfeat": 4002,
      "iede": 4003,
      "anya": 4004,
      "druk": 4005,
      "ĠHet": 4006,
      "Ã¤": 4007,
      "inning": 4008,
      "ĠParty": 4009,
      "ugc": 4010,
      "useum": 4011,
      "Ġtoep": 4012,
      "ĠMor": 4013,
      "veld": 4014,
      "Ġkuf": 4015,
      "itor": 4016,
      "Ġsold": 4017,
      "Ġnear": 4018,
      "Ġlocated": 4019,
      "ĠPhil": 4020,
      "Ġ(\"": 4021,
      "Ġlede": 4022,
      "Ġspesifieke": 4023,
      "aker": 4024,
      "ĠLeague": 4025,
      "Ġsite": 4026,
      "Ġblog": 4027,
      "ĠHowever": 4028,
      "wini": 4029,
      "ico": 4030,
      "aders": 4031,
      "Ġbar": 4032,
      "Ġvrae": 4033,
      "Ġkoste": 4034,
      "ender": 4035,
      "ades": 4036,
      "ks": 4037,
      "Ġile": 4038,
      "ains": 4039,
      "Ġpragtige": 4040,
      "Ġorder": 4041,
      "Ġabs": 4042,
      "Ġglad": 4043,
      "Ġswak": 4044,
      "kundige": 4045,
      "ified": 4046,
      "onga": 4047,
      "Ġops": 4048,
      "ĠFranc": 4049,
      "rog": 4050,
      "uig": 4051,
      "Ġcamp": 4052,
      "Ġcurr": 4053,
      "Ġbevestig": 4054,
      "oenie": 4055,
      "idenheid": 4056,
      "Ġemos": 4057,
      "Ġdiegene": 4058,
      "Ġsix": 4059,
      "ED": 4060,
      "ĠHistory": 4061,
      "Ġvorige": 4062,
      "Ġcond": 4063,
      "assing": 4064,
      "stelsel": 4065,
      "Ġverandering": 4066,
      "Ġwaarheid": 4067,
      "Ġevery": 4068,
      "dige": 4069,
      "Ġ@": 4070,
      "Ġden": 4071,
      "Ġsuccess": 4072,
      "Ġlive": 4073,
      "Ġeffe": 4074,
      "ĠGeorge": 4075,
      "ungu": 4076,
      "Ġraad": 4077,
      "Ġloku": 4078,
      "44": 4079,
      "eki": 4080,
      "ĠDem": 4081,
      "Ġsingle": 4082,
      "Ġsorg": 4083,
      "ĠYou": 4084,
      "ĠFrank": 4085,
      "ĠCounty": 4086,
      "Ġith": 4087,
      "Ġdankie": 4088,
      "ingo": 4089,
      "ĠRed": 4090,
      "endlela": 4091,
      "stryd": 4092,
      "Ġspesiale": 4093,
      "Ġvat": 4094,
      "staat": 4095,
      "ately": 4096,
      "Ġgemeente": 4097,
      "Ġlist": 4098,
      "Ġdisc": 4099,
      "saaklik": 4100,
      "ove": 4101,
      "ĠTrans": 4102,
      "bre": 4103,
      "Ġmeet": 4104,
      "usse": 4105,
      "Baie": 4106,
      "ĠWal": 4107,
      "Ġage": 4108,
      "Ġoorspronk": 4109,
      "Ġaank": 4110,
      "heen": 4111,
      "Ġtoets": 4112,
      "Ġfotos": 4113,
      "Ġreceived": 4114,
      "oung": 4115,
      "ization": 4116,
      "Ġkans": 4117,
      "Ġmun": 4118,
      "sebenza": 4119,
      "Ġbid": 4120,
      "Ġelkeen": 4121,
      "eding": 4122,
      "Ġmanag": 4123,
      "Jehova": 4124,
      "Ġerg": 4125,
      "Ġnjalo": 4126,
      "Ġbedien": 4127,
      "vis": 4128,
      "Ġserved": 4129,
      "Ġpresent": 4130,
      "utel": 4131,
      "anke": 4132,
      "ileng": 4133,
      "ÑĢ": 4134,
      "55": 4135,
      "Ġ60": 4136,
      "fo": 4137,
      "iete": 4138,
      "Ġ+": 4139,
      "Ġlwe": 4140,
      "Ġumuntu": 4141,
      "wende": 4142,
      "Ġleft": 4143,
      "uze": 4144,
      "Ġbeeld": 4145,
      "itz": 4146,
      "tement": 4147,
      "Ġbewys": 4148,
      "mas": 4149,
      "Ġvaar": 4150,
      "ez": 4151,
      "ĠUniversiteit": 4152,
      "vo": 4153,
      "Ġnational": 4154,
      "Ġpower": 4155,
      "ĠQu": 4156,
      "Ġvel": 4157,
      "Ġskakel": 4158,
      "Ġnamed": 4159,
      "ored": 4160,
      "80": 4161,
      "Ġgevaar": 4162,
      "Ġsowat": 4163,
      "Ġgedurende": 4164,
      "Ġprote": 4165,
      "ato": 4166,
      "Ġreport": 4167,
      "Ġopp": 4168,
      "Ġ*": 4169,
      "Re": 4170,
      "rup": 4171,
      "ality": 4172,
      "Ġevent": 4173,
      "bro": 4174,
      "uif": 4175,
      "fees": 4176,
      "Ġjuis": 4177,
      "Ġvideos": 4178,
      "born": 4179,
      "Ġdiere": 4180,
      "Ġidee": 4181,
      "alwa": 4182,
      "ĠChar": 4183,
      "iwiteit": 4184,
      "ĠItal": 4185,
      "Ġfac": 4186,
      "iens": 4187,
      "ĠSoc": 4188,
      "Ġbene": 4189,
      "Ġlip": 4190,
      "Ġwok": 4191,
      "inese": 4192,
      "Ġngenxa": 4193,
      "Ġthough": 4194,
      "Ġpyn": 4195,
      "ĠFebruarie": 4196,
      "Ġtour": 4197,
      "udl": 4198,
      "Ġkoning": 4199,
      "47": 4200,
      "voed": 4201,
      "Ġstuk": 4202,
      "ries": 4203,
      "ington": 4204,
      "kop": 4205,
      "vin": 4206,
      "ondag": 4207,
      "Ġalgemeen": 4208,
      "Ġbeide": 4209,
      "Ġtotdat": 4210,
      "ĠSoos": 4211,
      "ĠIz": 4212,
      "Ġnon": 4213,
      "ether": 4214,
      "hala": 4215,
      "AM": 4216,
      "fontein": 4217,
      "OU": 4218,
      "Ġindlela": 4219,
      "iti": 4220,
      "ublic": 4221,
      "ĠWoord": 4222,
      "war": 4223,
      "ograf": 4224,
      "Ġrondom": 4225,
      "Ġvergelyk": 4226,
      "ĠSim": 4227,
      "Ġukukh": 4228,
      "ekening": 4229,
      "gie": 4230,
      "azo": 4231,
      "Ġplekke": 4232,
      "rab": 4233,
      "Ġgestel": 4234,
      "Ġprim": 4235,
      "Ġbi": 4236,
      "Ġstation": 4237,
      "ĠOnline": 4238,
      "Ġinges": 4239,
      "Ġphakathi": 4240,
      "Ġstill": 4241,
      "mm": 4242,
      "Ġdue": 4243,
      "umi": 4244,
      "We": 4245,
      "ologiese": 4246,
      "ĠCollege": 4247,
      "fanele": 4248,
      "32": 4249,
      "ave": 4250,
      "Ġervaring": 4251,
      "Ġvet": 4252,
      "Ġaban": 4253,
      "isip": 4254,
      "wayo": 4255,
      "Ġiy": 4256,
      "Ġikh": 4257,
      "iment": 4258,
      "Joh": 4259,
      "ulp": 4260,
      "abantu": 4261,
      "ĠFacebook": 4262,
      "Ġtye": 4263,
      "Ġbos": 4264,
      "Ġyo": 4265,
      "enc": 4266,
      "Ġkm": 4267,
      "Ġrepres": 4268,
      "ĠRec": 4269,
      "tenis": 4270,
      "sels": 4271,
      "Ġthose": 4272,
      "tra": 4273,
      "groep": 4274,
      "xo": 4275,
      "Ġlim": 4276,
      "ĠRa": 4277,
      "iven": 4278,
      "Ġstories": 4279,
      "âĢ¢": 4280,
      "ĠInternational": 4281,
      "Ġsonde": 4282,
      "amba": 4283,
      "ĠVolgens": 4284,
      "Ġiss": 4285,
      "Ġpresies": 4286,
      "Ġpublished": 4287,
      "OM": 4288,
      "Ġonver": 4289,
      "ency": 4290,
      "Ġmid": 4291,
      "reeks": 4292,
      "Ġverskeidenheid": 4293,
      "Ġuitge": 4294,
      "Ġcolle": 4295,
      "ĠPat": 4296,
      "____": 4297,
      "Ġekonomiese": 4298,
      "skry": 4299,
      "OL": 4300,
      "Ġmuch": 4301,
      "Ġluister": 4302,
      "inkryk": 4303,
      "Volgens": 4304,
      "ĠLand": 4305,
      "Ġtest": 4306,
      "ethi": 4307,
      "Ġservice": 4308,
      "Ġwithin": 4309,
      "ĠSol": 4310,
      "Ġmodel": 4311,
      "pend": 4312,
      "ĠAfspraak": 4313,
      "Ġsiel": 4314,
      "hlelo": 4315,
      "Ġdrink": 4316,
      "Ġreview": 4317,
      "49": 4318,
      "Ġgraf": 4319,
      "seer": 4320,
      "Ã¨": 4321,
      "Ġmoord": 4322,
      "âĢĺ": 4323,
      "ĠGeb": 4324,
      "ional": 4325,
      "lement": 4326,
      "Ġervaar": 4327,
      "Ġswaar": 4328,
      "Ġmakelaar": 4329,
      "enie": 4330,
      "Ġkrit": 4331,
      "hab": 4332,
      "ĠStud": 4333,
      "Ġpersent": 4334,
      "ĠLeg": 4335,
      "Ġlokhu": 4336,
      "Ġstudente": 4337,
      "nr": 4338,
      "Ġkuba": 4339,
      "Ġniemand": 4340,
      "Ġaangek": 4341,
      "Ġbenodig": 4342,
      "anges": 4343,
      "wyn": 4344,
      "laim": 4345,
      "Ġmob": 4346,
      "win": 4347,
      "andi": 4348,
      "Ġbru": 4349,
      "utsh": 4350,
      "ampionship": 4351,
      "agtes": 4352,
      "ĠAc": 4353,
      "Ġgou": 4354,
      "ĠTwe": 4355,
      "izwa": 4356,
      "Ġelektr": 4357,
      "Ġwak": 4358,
      "arried": 4359,
      "Ġmult": 4360,
      "gin": 4361,
      "ĠhoÃ«r": 4362,
      "Ġhol": 4363,
      "Ġmoo": 4364,
      "Ġchildren": 4365,
      "Ġoorlog": 4366,
      "Ġngez": 4367,
      "ĠSl": 4368,
      "Ġgu": 4369,
      "ionele": 4370,
      "Ġpark": 4371,
      "Ġgestuur": 4372,
      "anteer": 4373,
      "ĠKom": 4374,
      "Ġbyna": 4375,
      "Ġizin": 4376,
      "used": 4377,
      "Ġwomen": 4378,
      "Ġumsebenzi": 4379,
      "jo": 4380,
      "Ġta": 4381,
      "Ġwar": 4382,
      "Ġlarge": 4383,
      "Ġgewig": 4384,
      "Ġpast": 4385,
      "46": 4386,
      "ĠIS": 4387,
      "Ġ2000": 4388,
      "oonlikes": 4389,
      "Ġincre": 4390,
      "Ġfinal": 4391,
      "atief": 4392,
      "Ġxa": 4393,
      "ekho": 4394,
      "Ġsik": 4395,
      "ively": 4396,
      "ĠBer": 4397,
      "anele": 4398,
      "ĠBest": 4399,
      "Ġmme": 4400,
      "Ġyi": 4401,
      "Ġperf": 4402,
      "Ġdifferent": 4403,
      "ĠWith": 4404,
      "Ġdeath": 4405,
      "deling": 4406,
      "Ġdiss": 4407,
      "pas": 4408,
      "Ġport": 4409,
      "oster": 4410,
      "Ġsport": 4411,
      "Ġhemel": 4412,
      "Ġverkry": 4413,
      "Ġverhaal": 4414,
      "ript": 4415,
      "inzi": 4416,
      "ety": 4417,
      "Ġtown": 4418,
      "Ġdaarin": 4419,
      "ĠNou": 4420,
      "vi": 4421,
      "Ġklaar": 4422,
      "uso": 4423,
      "ĠVrouens": 4424,
      "hamba": 4425,
      "Ġbuilt": 4426,
      "Ġwetenskap": 4427,
      "hethe": 4428,
      "obe": 4429,
      "Ġbatho": 4430,
      "azi": 4431,
      "mar": 4432,
      "Sk": 4433,
      "though": 4434,
      "TE": 4435,
      "ĠNeder": 4436,
      "BC": 4437,
      "Ġkamp": 4438,
      "Ġtoes": 4439,
      "ashi": 4440,
      "Ġperiod": 4441,
      "ĠEr": 4442,
      "Ġ07": 4443,
      "oudige": 4444,
      "ĠPlaas": 4445,
      "Ġmonth": 4446,
      "vlak": 4447,
      "Ġngaphandle": 4448,
      "Ġbelegg": 4449,
      "Ġyes": 4450,
      "iland": 4451,
      "lei": 4452,
      "Ġamb": 4453,
      "Ġmaniere": 4454,
      "Ġdienste": 4455,
      "edig": 4456,
      "plant": 4457,
      "ĠUp": 4458,
      "Ġpm": 4459,
      "Ġcentury": 4460,
      "omas": 4461,
      "ĠSelf": 4462,
      "Ġtsh": 4463,
      "Ġonderske": 4464,
      "dae": 4465,
      "ĠÂ£": 4466,
      "eens": 4467,
      "ĠJack": 4468,
      "ivision": 4469,
      "werwe": 4470,
      "jab": 4471,
      "asing": 4472,
      "enigde": 4473,
      "une": 4474,
      "oning": 4475,
      "Ġlae": 4476,
      "ĠJames": 4477,
      "hy": 4478,
      "ĠTop": 4479,
      "wek": 4480,
      "Ġeind": 4481,
      "Ġinternasionale": 4482,
      "Ġpog": 4483,
      "Ġsib": 4484,
      "ĠVers": 4485,
      "ryp": 4486,
      "atsh": 4487,
      "Ġkal": 4488,
      "sebenzisa": 4489,
      "Ġbydra": 4490,
      "xh": 4491,
      "oz": 4492,
      "aki": 4493,
      "Ġsituasie": 4494,
      "Ġindust": 4495,
      "Ġcountry": 4496,
      "ration": 4497,
      "ĠLondon": 4498,
      "baarheid": 4499,
      "ĠAfrican": 4500,
      "Ġtrou": 4501,
      "Ġrooi": 4502,
      "Ġbelasting": 4503,
      "ĠDaarom": 4504,
      "Be": 4505,
      "ĠOnder": 4506,
      "ĠDuring": 4507,
      "roon": 4508,
      "ouncil": 4509,
      "Ġdogter": 4510,
      "urger": 4511,
      "ĠOne": 4512,
      "ĠEnkellopendes": 4513,
      "anks": 4514,
      "Ġeeu": 4515,
      "Ġvolt": 4516,
      "Ġuitges": 4517,
      "erskap": 4518,
      "ulung": 4519,
      "ĠEngels": 4520,
      "Ġbusiness": 4521,
      "Ġcompet": 4522,
      "bestuur": 4523,
      "uage": 4524,
      "attle": 4525,
      "Ġaansoek": 4526,
      "arts": 4527,
      "ĠPersoonlikes": 4528,
      "artment": 4529,
      "otte": 4530,
      "Ġouderdom": 4531,
      "El": 4532,
      "Ġ2005": 4533,
      "ĠVideo": 4534,
      "ðŁ": 4535,
      "inner": 4536,
      "Ġdonker": 4537,
      "raal": 4538,
      "alwe": 4539,
      "Ġlow": 4540,
      "Ġblad": 4541,
      "Ġview": 4542,
      "elana": 4543,
      "bon": 4544,
      "ĠTo": 4545,
      "Ġtree": 4546,
      "Ġfive": 4547,
      "Ġshort": 4548,
      "ĠNuwe": 4549,
      "ially": 4550,
      "ĠKlein": 4551,
      "imu": 4552,
      "57": 4553,
      "Ġblyk": 4554,
      "Ġvreem": 4555,
      "okke": 4556,
      "adelik": 4557,
      "Ġgood": 4558,
      "Ġhanteer": 4559,
      "ati": 4560,
      "Ġair": 4561,
      "ĠMac": 4562,
      "Ġgevalle": 4563,
      "Ġled": 4564,
      "Ġversoek": 4565,
      "Ġaangebied": 4566,
      "ĠVader": 4567,
      "ca": 4568,
      "Ġhare": 4569,
      "thers": 4570,
      "Ġngayo": 4571,
      "Ġyakhe": 4572,
      "Ġvia": 4573,
      "Ġtipe": 4574,
      "amo": 4575,
      "Ġhaal": 4576,
      "inyaka": 4577,
      "Ġverhandel": 4578,
      "ĠRiver": 4579,
      "Ġdaai": 4580,
      "Ġsterf": 4581,
      "Ġgreat": 4582,
      "iled": 4583,
      "Ġbasis": 4584,
      "Ġnavorsing": 4585,
      "Ġenergie": 4586,
      "bele": 4587,
      "ruit": 4588,
      "Ġbedryf": 4589,
      "iswe": 4590,
      "90": 4591,
      "Ġbron": 4592,
      "orr": 4593,
      "Ġdaaroor": 4594,
      "ĠEg": 4595,
      "vul": 4596,
      "inda": 4597,
      "Ġhuw": 4598,
      "Ġkommun": 4599,
      "Ġroom": 4600,
      "Ġkab": 4601,
      "isoen": 4602,
      "Ġstadium": 4603,
      "Ġcha": 4604,
      "à¸": 4605,
      "ĠKaapstad": 4606,
      "ĠMaak": 4607,
      "ĠMad": 4608,
      "Ġampt": 4609,
      "osch": 4610,
      "Ġgirl": 4611,
      "Ġhistory": 4612,
      "Ġonb": 4613,
      "58": 4614,
      "Foto": 4615,
      "Ġkube": 4616,
      "yer": 4617,
      "56": 4618,
      "air": 4619,
      "Ġposs": 4620,
      "Ġconsider": 4621,
      "enaam": 4622,
      "anu": 4623,
      "Ġgods": 4624,
      "AC": 4625,
      "Ġvrugte": 4626,
      "ems": 4627,
      "ĠAct": 4628,
      "Ġnasionale": 4629,
      "Ġkontak": 4630,
      "Ġpopulation": 4631,
      "\")": 4632,
      "Ġimport": 4633,
      "oke": 4634,
      "Ġduis": 4635,
      "Ġvars": 4636,
      "Ġgeleer": 4637,
      "ĠbeÃ¯n": 4638,
      "ĠAnt": 4639,
      "Ġmisk": 4640,
      "Ġrepresent": 4641,
      "Ġkuk": 4642,
      "Ġverbind": 4643,
      "ĠNor": 4644,
      "Ġeven": 4645,
      "Ġverkeerd": 4646,
      "adig": 4647,
      "Ġarm": 4648,
      "Ġskuld": 4649,
      "ĠLat": 4650,
      "era": 4651,
      "ruct": 4652,
      "Ġuitdag": 4653,
      "So": 4654,
      "Ġple": 4655,
      "Ġgebore": 4656,
      "ĠElke": 4657,
      "enaar": 4658,
      "Ġbevind": 4659,
      "ellig": 4660,
      "Posted": 4661,
      "Ġklim": 4662,
      "del": 4663,
      "Ġpan": 4664,
      "Ġdip": 4665,
      "Ġhomself": 4666,
      "ĠRich": 4667,
      "earch": 4668,
      "Ġfact": 4669,
      "iff": 4670,
      "uva": 4671,
      "Ġfund": 4672,
      "Ġbuilding": 4673,
      "Ġboodskap": 4674,
      "Ġanother": 4675,
      "ĠUK": 4676,
      "Ġca": 4677,
      "aks": 4678,
      "Ġold": 4679,
      "ĠDeur": 4680,
      "Ġnjengoba": 4681,
      "for": 4682,
      "Ġincluded": 4683,
      "itions": 4684,
      "fr": 4685,
      "ites": 4686,
      "uleer": 4687,
      "Ġinclude": 4688,
      "doen": 4689,
      "Ġerken": 4690,
      "nemers": 4691,
      "ĠMart": 4692,
      "ĠFrench": 4693,
      "Ġontdek": 4694,
      "ĠStreet": 4695,
      "jani": 4696,
      "ll": 4697,
      "Ġcrit": 4698,
      "Ġwent": 4699,
      "Ġkoek": 4700,
      "cks": 4701,
      "enziswa": 4702,
      "Ġamper": 4703,
      "Ġvoorbere": 4704,
      "ella": 4705,
      "Ġopenbare": 4706,
      "icle": 4707,
      "Ġdollar": 4708,
      "Ġnatuurlike": 4709,
      "Ġenkele": 4710,
      "Ĥ¬": 4711,
      "Ġbedoel": 4712,
      "Ġgesondheid": 4713,
      "Ġoploss": 4714,
      "pye": 4715,
      "vision": 4716,
      "ĠIN": 4717,
      "ĠBritse": 4718,
      "Ġkommentaar": 4719,
      "Ġvoorbeeld": 4720,
      "Ġthird": 4721,
      "Ġdied": 4722,
      "aarte": 4723,
      "Ġverteen": 4724,
      "bi": 4725,
      "ype": 4726,
      "uni": 4727,
      "rick": 4728,
      "Ġgesprek": 4729,
      "oemde": 4730,
      "ĠLib": 4731,
      "Ġdefin": 4732,
      "Ġgeg": 4733,
      "Ġtuin": 4734,
      "ĠâĢ¢": 4735,
      "Ġgeplaas": 4736,
      "midd": 4737,
      "hep": 4738,
      "illa": 4739,
      "Ġminister": 4740,
      "yds": 4741,
      "Ġvervaardig": 4742,
      "oste": 4743,
      "Ġkwam": 4744,
      "EK": 4745,
      "rot": 4746,
      "Ġzoku": 4747,
      "ira": 4748,
      "Ġproject": 4749,
      "woorde": 4750,
      "Ġgoud": 4751,
      "Ġeph": 4752,
      "ĠWilliam": 4753,
      "59": 4754,
      "ubliseer": 4755,
      "kn": 4756,
      "ĠPresident": 4757,
      "Ġbespreek": 4758,
      "ĠSpr": 4759,
      "illage": 4760,
      "Ġsele": 4761,
      "anisa": 4762,
      "ĠTur": 4763,
      "acter": 4764,
      "itional": 4765,
      "ills": 4766,
      "agtig": 4767,
      "ĠDist": 4768,
      "vry": 4769,
      "ĠRome": 4770,
      "standighede": 4771,
      "isana": 4772,
      "eta": 4773,
      "ĠDavid": 4774,
      "Ġhttp": 4775,
      "Ġsmaak": 4776,
      "Ġsagteware": 4777,
      "Ġuth": 4778,
      "ĠProf": 4779,
      "AD": 4780,
      "ĠFin": 4781,
      "slag": 4782,
      "Ġmond": 4783,
      "Ġgedink": 4784,
      "Ġbath": 4785,
      "ĠNav": 4786,
      "inter": 4787,
      "Ġside": 4788,
      "Ġhow": 4789,
      "Ġboer": 4790,
      "onie": 4791,
      "Ġminste": 4792,
      "Ġinstrum": 4793,
      "Ġbetekenis": 4794,
      "vangel": 4795,
      "Ġvolwasse": 4796,
      "Ġvroeg": 4797,
      "Ġlog": 4798,
      "IC": 4799,
      "Ġoku": 4800,
      "Ġyonke": 4801,
      "Ġrefer": 4802,
      "qubo": 4803,
      "Ġsuur": 4804,
      "elt": 4805,
      "Ġequ": 4806,
      "vu": 4807,
      "Ġpak": 4808,
      "ĠAng": 4809,
      "uses": 4810,
      "ords": 4811,
      "Åį": 4812,
      "Ġstrategie": 4813,
      "Ġvlieg": 4814,
      "Ġwonderlike": 4815,
      "Ġ2004": 4816,
      "ĠVerenigde": 4817,
      "akwazi": 4818,
      "100": 4819,
      "Ġshou": 4820,
      "Ġnuut": 4821,
      "ĠBen": 4822,
      "umente": 4823,
      "ches": 4824,
      "vorm": 4825,
      "Ġmm": 4826,
      "isionele": 4827,
      "Ġfootball": 4828,
      "ĠSondag": 4829,
      "OT": 4830,
      "Ġdaaraan": 4831,
      "inders": 4832,
      "ĠSat": 4833,
      "chi": 4834,
      "Ġnorth": 4835,
      "Ġelk": 4836,
      "Ġstryd": 4837,
      "uter": 4838,
      "ĠBay": 4839,
      "âĨĳ": 4840,
      "ĠvermoÃ«": 4841,
      "ĠNews": 4842,
      "Ġsout": 4843,
      "Ġvergeet": 4844,
      "ĠĠĠĠ": 4845,
      "ĠTw": 4846,
      "Ġskrywer": 4847,
      "Ġverniet": 4848,
      "ĠEast": 4849,
      "Ġos": 4850,
      "Ġdele": 4851,
      "Ġveiligheid": 4852,
      "Ġsens": 4853,
      "ĠNG": 4854,
      "ĠMens": 4855,
      "Ġpred": 4856,
      "raft": 4857,
      "ĠVrydag": 4858,
      "program": 4859,
      "ken": 4860,
      "Ġmillion": 4861,
      "ĠCour": 4862,
      "Ġinhoud": 4863,
      "field": 4864,
      "Ġinternet": 4865,
      "eff": 4866,
      "Ġtechn": 4867,
      "oef": 4868,
      "Ġsust": 4869,
      "Ġprivate": 4870,
      "Ġneed": 4871,
      "unda": 4872,
      "zima": 4873,
      "ĠAM": 4874,
      "Ġteken": 4875,
      "uda": 4876,
      "hlukene": 4877,
      "Ġwaarmee": 4878,
      "ero": 4879,
      "Ġwww": 4880,
      "Ġekstra": 4881,
      "ociation": 4882,
      "wang": 4883,
      "aterdag": 4884,
      "lus": 4885,
      "jeng": 4886,
      "ĠRam": 4887,
      "Hulle": 4888,
      "Ġkwak": 4889,
      "Ġfem": 4890,
      "Ġdescrib": 4891,
      "Ġgesels": 4892,
      "ĠOff": 4893,
      "ream": 4894,
      "aphezu": 4895,
      "indawo": 4896,
      "Ġresearch": 4897,
      "Ġactiv": 4898,
      "Ġmoeite": 4899,
      "Mar": 4900,
      "oodie": 4901,
      "akter": 4902,
      "Ġcult": 4903,
      "ado": 4904,
      "Ġsel": 4905,
      "ĠOor": 4906,
      "Ġcontrol": 4907,
      "alokho": 4908,
      "Ġven": 4909,
      "Ġbekende": 4910,
      "Ġpele": 4911,
      "iwe": 4912,
      "Ġfriend": 4913,
      "Ġvar": 4914,
      "Ġgeslag": 4915,
      "Ġpryse": 4916,
      "wed": 4917,
      "Ġamaz": 4918,
      "Ġlate": 4919,
      "aklik": 4920,
      "Ġdam": 4921,
      "Ġrus": 4922,
      "gar": 4923,
      "ĠLees": 4924,
      "ĠLos": 4925,
      "aso": 4926,
      "Ġinteress": 4927,
      "Ġgeweet": 4928,
      "ĠSou": 4929,
      "Ġauthor": 4930,
      "aseer": 4931,
      "ĠJe": 4932,
      "ĠGes": 4933,
      "ĠCup": 4934,
      "hod": 4935,
      "Ġgewone": 4936,
      "emo": 4937,
      "hael": 4938,
      "ĠRoy": 4939,
      "Ġleb": 4940,
      "Ġput": 4941,
      "Ġgebring": 4942,
      "ĠHen": 4943,
      "Ġveilig": 4944,
      "ĠChurch": 4945,
      "Ġtimes": 4946,
      "thetho": 4947,
      "oft": 4948,
      "leef": 4949,
      "Ġbuitelandse": 4950,
      "drag": 4951,
      "seblief": 4952,
      ".+": 4953,
      "Ġfun": 4954,
      "cent": 4955,
      "95": 4956,
      "ura": 4957,
      "span": 4958,
      "Ġkapa": 4959,
      "andela": 4960,
      "ĠMot": 4961,
      "Ġvul": 4962,
      "ĠWet": 4963,
      "Ġprem": 4964,
      "omat": 4965,
      "ĠDA": 4966,
      "Ġ500": 4967,
      "Ġwab": 4968,
      "Ġkultuur": 4969,
      "Ġbesit": 4970,
      "Ġaw": 4971,
      "Ġkukh": 4972,
      "):": 4973,
      "Ġgooi": 4974,
      "bly": 4975,
      "Ġgelde": 4976,
      "ĠWÃªreld": 4977,
      "Ġukuph": 4978,
      "Ġgames": 4979,
      "Ġrek": 4980,
      "qhub": 4981,
      "ĠSing": 4982,
      "Ġsouth": 4983,
      "aliforn": 4984,
      "antsi": 4985,
      "Ġsny": 4986,
      "Ġposisie": 4987,
      "Ġbevorder": 4988,
      "42": 4989,
      "Ġbay": 4990,
      "Ġdaarvoor": 4991,
      "Ġgegaan": 4992,
      "Ġwonke": 4993,
      "Ġfind": 4994,
      "IG": 4995,
      "Ġkinder": 4996,
      "Ġskole": 4997,
      "Ġvanjaar": 4998,
      "lished": 4999,
      "Ġhost": 5000,
      "ĠChinese": 5001,
      "enior": 5002,
      "side": 5003,
      "olit": 5004,
      "obs": 5005,
      "Ġwyse": 5006,
      "Ġamong": 5007,
      "Ð¾Ð": 5008,
      "ĠTs": 5009,
      "IK": 5010,
      "SC": 5011,
      "Ġneer": 5012,
      "ĠMense": 5013,
      "Ġtydperk": 5014,
      "ĠLang": 5015,
      "houdings": 5016,
      "Deur": 5017,
      "Ġlied": 5018,
      "ĠPorno": 5019,
      "Ġdaarmee": 5020,
      "Ġhandelaar": 5021,
      "Ġgaste": 5022,
      "ĠBot": 5023,
      "Ġud": 5024,
      "rote": 5025,
      "Ġgelukkig": 5026,
      "ounced": 5027,
      "Ġkruis": 5028,
      "Ġwyn": 5029,
      "ĠTiener": 5030,
      "Ġbrief": 5031,
      "Ġvertrou": 5032,
      "iter": 5033,
      "toe": 5034,
      "Ġsiekte": 5035,
      "Ġoffer": 5036,
      "Ġprocess": 5037,
      "ĠgeÃ¯": 5038,
      "ambo": 5039,
      "SE": 5040,
      "Ġblack": 5041,
      "Ġtemper": 5042,
      "alis": 5043,
      "Ġhuwelik": 5044,
      "Ġgeraak": 5045,
      "Ġbra": 5046,
      "ĠSpe": 5047,
      "uh": 5048,
      "Ġnext": 5049,
      "bor": 5050,
      "apa": 5051,
      "str": 5052,
      "baan": 5053,
      "por": 5054,
      "Ġyom": 5055,
      "Ġdub": 5056,
      "keur": 5057,
      "ĠfinansiÃ«le": 5058,
      "rale": 5059,
      "ektief": 5060,
      "Ġnut": 5061,
      "woners": 5062,
      "Ġrust": 5063,
      "70": 5064,
      "myn": 5065,
      "Ġletter": 5066,
      "bew": 5067,
      "teek": 5068,
      "iÃ«nt": 5069,
      "trede": 5070,
      "ĠvroeÃ«r": 5071,
      "Ġoord": 5072,
      "Ġdevelopment": 5073,
      "Ġoften": 5074,
      "ilde": 5075,
      "Ġalbei": 5076,
      "Ġdadelik": 5077,
      "ĠMans": 5078,
      "Ġlam": 5079,
      "Ġvy": 5080,
      "Net": 5081,
      "Ġplante": 5082,
      "ances": 5083,
      "osa": 5084,
      "ĠWhen": 5085,
      "Ġvleis": 5086,
      "Ġoriginal": 5087,
      "ĠKn": 5088,
      "IV": 5089,
      "Ġveg": 5090,
      "tigheid": 5091,
      "Ġeth": 5092,
      "ĠVSA": 5093,
      "Ġenter": 5094,
      "Ġfyn": 5095,
      "Ġmoved": 5096,
      "Ġuitgev": 5097,
      "Ġtalle": 5098,
      "Ġdepos": 5099,
      "ĠJa": 5100,
      "Ġlook": 5101,
      "key": 5102,
      "zwe": 5103,
      "heka": 5104,
      "Ġconf": 5105,
      "ĠDIE": 5106,
      "Ġwinter": 5107,
      "41": 5108,
      "Ġaanwys": 5109,
      "Ġmer": 5110,
      "ĠVal": 5111,
      "Ġcle": 5112,
      "78": 5113,
      "Ġrob": 5114,
      "43": 5115,
      "oney": 5116,
      "Ġgang": 5117,
      "ying": 5118,
      "uto": 5119,
      "hlaba": 5120,
      "ãĥ": 5121,
      "ĠGel": 5122,
      "2019": 5123,
      "Ġdier": 5124,
      "Ġlef": 5125,
      "uted": 5126,
      "ggend": 5127,
      "Ġshould": 5128,
      "Ġfather": 5129,
      "rics": 5130,
      "owwe": 5131,
      "wyd": 5132,
      "Ġwort": 5133,
      "Ġwakhe": 5134,
      "Ġvoltooi": 5135,
      "Ġbehandeling": 5136,
      "ogn": 5137,
      "Ġur": 5138,
      "Ġbrood": 5139,
      "Ġvaluta": 5140,
      "Ġsen": 5141,
      "adl": 5142,
      "sprake": 5143,
      "ĠChe": 5144,
      "Ġwerklikheid": 5145,
      "onn": 5146,
      "âĢĿ,": 5147,
      "Ġisikhathi": 5148,
      "aku": 5149,
      "Ġsexy": 5150,
      "Ġattack": 5151,
      "Ġnm": 5152,
      "leer": 5153,
      "ema": 5154,
      "Ġgroen": 5155,
      "Ġtel": 5156,
      "afhank": 5157,
      "keer": 5158,
      "ped": 5159,
      "ĠNuus": 5160,
      "Ġdeeg": 5161,
      "how": 5162,
      "olwa": 5163,
      "Ġenc": 5164,
      "aro": 5165,
      "ĠInstit": 5166,
      "ements": 5167,
      "Ġongeloof": 5168,
      "ĠKyk": 5169,
      "mon": 5170,
      "udla": 5171,
      "ĠtÅ¡a": 5172,
      "voerder": 5173,
      "ĠSn": 5174,
      "ĠHeilige": 5175,
      "los": 5176,
      "ĠSek": 5177,
      "Ġsocial": 5178,
      "Ġmong": 5179,
      "Ġberig": 5180,
      "qe": 5181,
      "Ġvi": 5182,
      "irt": 5183,
      "Ġcame": 5184,
      "depend": 5185,
      "ination": 5186,
      "Å¡e": 5187,
      "Ġasp": 5188,
      "komm": 5189,
      "ners": 5190,
      "den": 5191,
      "sters": 5192,
      "Ġimali": 5193,
      "Ġtar": 5194,
      "Ġgetrou": 5195,
      "ĠtÅ¡e": 5196,
      "Ġmilf": 5197,
      "Ġallow": 5198,
      "Ġrole": 5199,
      "Ġngom": 5200,
      "By": 5201,
      "indlela": 5202,
      "ĠNam": 5203,
      "ĠTest": 5204,
      "Ġboere": 5205,
      "Ġadminist": 5206,
      "Ġfull": 5207,
      "load": 5208,
      "Ġspecial": 5209,
      "IL": 5210,
      "vail": 5211,
      "Toe": 5212,
      "AP": 5213,
      "eloos": 5214,
      "Ġmelk": 5215,
      "itha": 5216,
      "ĠCom": 5217,
      "entrum": 5218,
      "Am": 5219,
      "Ġconstru": 5220,
      "ĠvroeÃ«": 5221,
      "ammer": 5222,
      "eleni": 5223,
      "Ġsag": 5224,
      "Ġondersteuning": 5225,
      "Un": 5226,
      "ERE": 5227,
      "hok": 5228,
      "ĠJehova": 5229,
      "Ġche": 5230,
      "issie": 5231,
      "oggend": 5232,
      "Ġaanbied": 5233,
      "Ġlaag": 5234,
      "53": 5235,
      "Ġusing": 5236,
      "bank": 5237,
      "Ġsj": 5238,
      "ĠSam": 5239,
      "hloko": 5240,
      "alings": 5241,
      "ĠCD": 5242,
      "?âĢĿ": 5243,
      "Ġstudies": 5244,
      "Ġbasiese": 5245,
      "Ġdet": 5246,
      "Ġgespeel": 5247,
      "urther": 5248,
      "Ġlanger": 5249,
      "Ġvrede": 5250,
      "Ġpussy": 5251,
      "Ġstarted": 5252,
      "essor": 5253,
      "Ġomstandighede": 5254,
      "Ġkufanele": 5255,
      "Ġspy": 5256,
      "Ġverlaat": 5257,
      "ĠJohannesburg": 5258,
      "Ġhor": 5259,
      "sm": 5260,
      "Ġcm": 5261,
      "ĠKor": 5262,
      "rest": 5263,
      "inkels": 5264,
      "Ġless": 5265,
      "uel": 5266,
      "For": 5267,
      "plic": 5268,
      "ooie": 5269,
      "Ġoorspronklike": 5270,
      "ĠMeisie": 5271,
      "Ġbreek": 5272,
      "ĠDuits": 5273,
      "Ġturn": 5274,
      "Ġruimte": 5275,
      "Ġasseblief": 5276,
      "Ġinte": 5277,
      "ours": 5278,
      "isho": 5279,
      "Ġgeestelike": 5280,
      "Ġrom": 5281,
      "ondes": 5282,
      "ieer": 5283,
      "iddelde": 5284,
      "De": 5285,
      "ĠWind": 5286,
      "Ġmenslike": 5287,
      "aners": 5288,
      "ĠBank": 5289,
      "voeg": 5290,
      "Ġfig": 5291,
      "ĠBlo": 5292,
      "Ġinvol": 5293,
      "Ġgebaseer": 5294,
      "Ġ09": 5295,
      "uan": 5296,
      "Ġworks": 5297,
      "Ġlom": 5298,
      "olie": 5299,
      "Ġker": 5300,
      "Ġdirekte": 5301,
      "gekom": 5302,
      "itsh": 5303,
      "Ġprevious": 5304,
      "Waar": 5305,
      "Ġontstaan": 5306,
      "Ġdroog": 5307,
      "ĠSil": 5308,
      "Ġgelei": 5309,
      "ĠKw": 5310,
      "ĠInt": 5311,
      "Ġill": 5312,
      "Ġkombuis": 5313,
      "utho": 5314,
      "ervlak": 5315,
      "andid": 5316,
      "ĠInter": 5317,
      "ĠWeb": 5318,
      "ĠZuma": 5319,
      "ĠPaulus": 5320,
      "Ġmiskien": 5321,
      "ĠServ": 5322,
      "ĠQue": 5323,
      "Ġiq": 5324,
      "ĠKodwa": 5325,
      "Ġversprei": 5326,
      "izwe": 5327,
      "Ġgelow": 5328,
      "Ġhers": 5329,
      "Ġsug": 5330,
      "Ġcoun": 5331,
      "Ġgedrag": 5332,
      "Ġuitg": 5333,
      "ways": 5334,
      "nemings": 5335,
      "Ġwathi": 5336,
      "loos": 5337,
      "Ġure": 5338,
      "rad": 5339,
      "Ġiph": 5340,
      "play": 5341,
      "ageer": 5342,
      "ĠHoodie": 5343,
      "Ġverklaar": 5344,
      "Ġeenvoudige": 5345,
      "Ġwam": 5346,
      "wering": 5347,
      "ules": 5348,
      "ĠKh": 5349,
      "ĠPost": 5350,
      "ĠIndia": 5351,
      "Ġaltern": 5352,
      "Hier": 5353,
      "Ġrestaur": 5354,
      "Ġprivaat": 5355,
      "Ġ35": 5356,
      "iling": 5357,
      "Ġnader": 5358,
      "Ġban": 5359,
      "alulek": 5360,
      "Ġleiers": 5361,
      "?\"": 5362,
      "Ġoggend": 5363,
      "yi": 5364,
      "ĠGold": 5365,
      "partement": 5366,
      "pad": 5367,
      "Ġcharacter": 5368,
      "Ġgeskep": 5369,
      "Ġknow": 5370,
      "ummer": 5371,
      "ĠAlex": 5372,
      "alls": 5373,
      "Ġhum": 5374,
      "otho": 5375,
      "Na": 5376,
      "lah": 5377,
      "ĠBi": 5378,
      "Ġ2003": 5379,
      "ĠSonder": 5380,
      "Ġyez": 5381,
      "Ġtoestand": 5382,
      "Ġteks": 5383,
      "Ġonlangs": 5384,
      "Ġ188": 5385,
      "ĠSaterdag": 5386,
      "Ġbestand": 5387,
      "Ġbecome": 5388,
      "ĠJose": 5389,
      "Ġverteenwoordig": 5390,
      "anch": 5391,
      "ips": 5392,
      "ĠHandel": 5393,
      "ondo": 5394,
      "ĠGay": 5395,
      "ĠWhite": 5396,
      "ĠFree": 5397,
      "Ġelect": 5398,
      "inasie": 5399,
      "esh": 5400,
      "Ġinterest": 5401,
      "Ġbewus": 5402,
      "Ġspreek": 5403,
      "Ġernstige": 5404,
      "Wanneer": 5405,
      "ais": 5406,
      "ĠRobert": 5407,
      "Ġlag": 5408,
      "roup": 5409,
      "Ġgedagtes": 5410,
      "Ġcor": 5411,
      "Ġbetrek": 5412,
      "Ġdating": 5413,
      "Ġgenade": 5414,
      "essies": 5415,
      "ĠLaat": 5416,
      "ST": 5417,
      "Ġship": 5418,
      "Ġroep": 5419,
      "Ġinge": 5420,
      "ĠbeÃ¯nvloed": 5421,
      "Ġaflaai": 5422,
      "enning": 5423,
      "hos": 5424,
      "enga": 5425,
      "Ġsqu": 5426,
      "Ġvoordeel": 5427,
      "Ġow": 5428,
      "Ġoorw": 5429,
      "rome": 5430,
      "osh": 5431,
      "alt": 5432,
      "Ġmust": 5433,
      "Ġcommunity": 5434,
      "Ġinvloed": 5435,
      "akke": 5436,
      "75": 5437,
      "Ġlu": 5438,
      "Ġseng": 5439,
      "heb": 5440,
      "acy": 5441,
      "agn": 5442,
      "ĠWater": 5443,
      "anklik": 5444,
      "km": 5445,
      "Ġlesb": 5446,
      "Amer": 5447,
      "umbi": 5448,
      "baai": 5449,
      "Ġfew": 5450,
      "ĠEs": 5451,
      "uty": 5452,
      "ĠEngland": 5453,
      "nam": 5454,
      "Ġclaim": 5455,
      "lim": 5456,
      "ĠreÃ«n": 5457,
      "Ġ36": 5458,
      "Ġinkomste": 5459,
      "Ġwithout": 5460,
      "ĠYe": 5461,
      "vall": 5462,
      "anz": 5463,
      "okol": 5464,
      "ums": 5465,
      "asil": 5466,
      "Ġic": 5467,
      "Ġ=": 5468,
      "Ġeienskappe": 5469,
      "Ġright": 5470,
      "Ġannounced": 5471,
      "leur": 5472,
      "Ġkontrak": 5473,
      "uldig": 5474,
      "Ġumb": 5475,
      "imbi": 5476,
      "Ġekh": 5477,
      "Ġhaving": 5478,
      "treff": 5479,
      "ĠAnder": 5480,
      "Ġdays": 5481,
      "Ġbody": 5482,
      "Ġgewees": 5483,
      "Ġverslag": 5484,
      "inst": 5485,
      "ntu": 5486,
      "Ġfakt": 5487,
      "ĠGoogle": 5488,
      "Ġbor": 5489,
      "jien": 5490,
      "ention": 5491,
      "oeke": 5492,
      "eksie": 5493,
      "iÃ«rs": 5494,
      "cha": 5495,
      "Ġyam": 5496,
      "steling": 5497,
      "Ġareas": 5498,
      "aby": 5499,
      "ĠUma": 5500,
      "Ġkr": 5501,
      "Ġseer": 5502,
      "Ġamab": 5503,
      "ellenb": 5504,
      "ĠThese": 5505,
      "Ġorigin": 5506,
      "sebenz": 5507,
      "Ġvarious": 5508,
      "ruktuur": 5509,
      "Ġcomplet": 5510,
      "qa": 5511,
      "Ġclos": 5512,
      "Ġdoes": 5513,
      "iÃ©": 5514,
      "aweni": 5515,
      "Ġdissip": 5516,
      "bw": 5517,
      "ĠCont": 5518,
      "52": 5519,
      "geme": 5520,
      "Ġhoeveelheid": 5521,
      "UN": 5522,
      "Ġasem": 5523,
      "ikho": 5524,
      "Ġ80": 5525,
      "Ġaanbeveel": 5526,
      "geh": 5527,
      "onto": 5528,
      "Ġokung": 5529,
      "Ġgerus": 5530,
      "ators": 5531,
      "ĠPot": 5532,
      "pat": 5533,
      "Ġredes": 5534,
      "Ġestablished": 5535,
      "Ġfield": 5536,
      "Ġkang": 5537,
      "BA": 5538,
      "Ġskie": 5539,
      "ĠCal": 5540,
      "breek": 5541,
      "xesha": 5542,
      "etting": 5543,
      "rd": 5544,
      "Ġagt": 5545,
      "Ðº": 5546,
      "erusale": 5547,
      "Ġsker": 5548,
      "ological": 5549,
      "UK": 5550,
      "Ġcover": 5551,
      "tha": 5552,
      "Ġhoogte": 5553,
      "UM": 5554,
      "Ġpract": 5555,
      "Ġwrote": 5556,
      "54": 5557,
      "iningi": 5558,
      "Ġcommon": 5559,
      "Ġaba": 5560,
      "Ġhonde": 5561,
      "Ġklas": 5562,
      "sver": 5563,
      "ĠClub": 5564,
      "51": 5565,
      "Ġubu": 5566,
      "enziwa": 5567,
      "anna": 5568,
      "abeth": 5569,
      "ĠWant": 5570,
      "isebenzi": 5571,
      "Ġvoordele": 5572,
      "Ġinternational": 5573,
      "Ġnako": 5574,
      "Ġlot": 5575,
      "Ġonmiddel": 5576,
      "PS": 5577,
      "Ġregul": 5578,
      "Ġukul": 5579,
      "iro": 5580,
      "Ġgewerk": 5581,
      "cwele": 5582,
      "wh": 5583,
      "ĠRoad": 5584,
      "ĠFe": 5585,
      "Ġanti": 5586,
      "Ġgedagte": 5587,
      "ĠMaatsoekweb": 5588,
      "bring": 5589,
      "Ġabang": 5590,
      "Ġaanget": 5591,
      "ilig": 5592,
      "oest": 5593,
      "reig": 5594,
      "Ġgewild": 5595,
      "Ġwerd": 5596,
      "Ġvervang": 5597,
      "ĠWash": 5598,
      "ĠMaandag": 5599,
      "Ġprojek": 5600,
      "Ġmediese": 5601,
      "Ã´": 5602,
      "rees": 5603,
      "Ġpolitical": 5604,
      "produk": 5605,
      "Ġstudent": 5606,
      "isode": 5607,
      "ontak": 5608,
      "ayi": 5609,
      "Ġnov": 5610,
      "Ġdroom": 5611,
      "Ġappear": 5612,
      "ials": 5613,
      "ĠFrom": 5614,
      "har": 5615,
      "udeer": 5616,
      "ĠSmith": 5617,
      "usie": 5618,
      "Sp": 5619,
      "Ġbakeng": 5620,
      "ĠSex": 5621,
      "Ġ1990": 5622,
      "Ã©n": 5623,
      "back": 5624,
      "erende": 5625,
      "Fr": 5626,
      "emark": 5627,
      "lant": 5628,
      "www": 5629,
      "ĠBor": 5630,
      "koop": 5631,
      "Ġmoderne": 5632,
      "vat": 5633,
      "ibon": 5634,
      "Ġaz": 5635,
      "ĠSuper": 5636,
      "ikels": 5637,
      "posed": 5638,
      "Ġgees": 5639,
      "ampani": 5640,
      "prys": 5641,
      "iende": 5642,
      "Ġmyself": 5643,
      "ĠBut": 5644,
      "ban": 5645,
      "abol": 5646,
      "Ġskade": 5647,
      "hef": 5648,
      "wart": 5649,
      "ws": 5650,
      "Een": 5651,
      "Ġeconom": 5652,
      "temming": 5653,
      "Ġstro": 5654,
      "arth": 5655,
      "âĢ¦.": 5656,
      "ental": 5657,
      "Ġdirect": 5658,
      "Ġradio": 5659,
      "Jesu": 5660,
      "risis": 5661,
      "Ġgeneral": 5662,
      "Ġtitle": 5663,
      "Ġrepla": 5664,
      "ising": 5665,
      "Ġkud": 5666,
      "idings": 5667,
      "Ġwissel": 5668,
      "wano": 5669,
      "Ġoorweeg": 5670,
      "ĠNasionale": 5671,
      "Ġmik": 5672,
      "iphi": 5673,
      "OD": 5674,
      "ĠHand": 5675,
      "zela": 5676,
      "Ġbese": 5677,
      "Ġabaf": 5678,
      "Ġpoint": 5679,
      "iatiese": 5680,
      "Ġpersone": 5681,
      "omi": 5682,
      "ĠEle": 5683,
      "hetho": 5684,
      "awes": 5685,
      "Ad": 5686,
      "Ġgiven": 5687,
      "ĠThomas": 5688,
      "98": 5689,
      "Ġkoku": 5690,
      "ellenbosch": 5691,
      "ĠGer": 5692,
      "ĠuNkulunkulu": 5693,
      "ences": 5694,
      "Ġnob": 5695,
      "enda": 5696,
      "!!!": 5697,
      "ĠEuropa": 5698,
      "ĠDiÃ©": 5699,
      "Ġdokter": 5700,
      "leni": 5701,
      "abil": 5702,
      "Ġyena": 5703,
      "Ġstaats": 5704,
      "Ġbonke": 5705,
      "Ġekonomie": 5706,
      "etjie": 5707,
      "Ġopleiding": 5708,
      "Ġhuman": 5709,
      "AK": 5710,
      "usi": 5711,
      "eenkoms": 5712,
      "athe": 5713,
      "arem": 5714,
      "Ġboom": 5715,
      "Ġberg": 5716,
      "imal": 5717,
      "less": 5718,
      "oonlike": 5719,
      "iwiteite": 5720,
      "engi": 5721,
      "ekend": 5722,
      "astern": 5723,
      "Ġkru": 5724,
      "Ġ186": 5725,
      "jy": 5726,
      "gende": 5727,
      "akam": 5728,
      "Ġsamele": 5729,
      "offie": 5730,
      "Ġip": 5731,
      "cono": 5732,
      "ivil": 5733,
      "Ġling": 5734,
      "oens": 5735,
      "ells": 5736,
      "Ġworked": 5737,
      "kam": 5738,
      "Ġ06": 5739,
      "Ġpopular": 5740,
      "apen": 5741,
      "ĠLiefde": 5742,
      "Ġavail": 5743,
      "EM": 5744,
      "Ġnal": 5745,
      "Ġappoint": 5746,
      "ĠInst": 5747,
      "ĠWord": 5748,
      "Ġkahle": 5749,
      "abor": 5750,
      "Ġef": 5751,
      "ĠVideos": 5752,
      "azane": 5753,
      "Ġ2002": 5754,
      "tering": 5755,
      "ults": 5756,
      "Ġboo": 5757,
      "aps": 5758,
      "ĠEN": 5759,
      ",+": 5760,
      "Ġnaweek": 5761,
      "ukkie": 5762,
      "Ġsewe": 5763,
      "plaas": 5764,
      "Ġfis": 5765,
      "Ġtoen": 5766,
      "hire": 5767,
      "aining": 5768,
      "Ġtal": 5769,
      "etisie": 5770,
      "Ġchat": 5771,
      "gies": 5772,
      "ĠUnion": 5773,
      "ached": 5774,
      "cht": 5775,
      "asis": 5776,
      "ĠBed": 5777,
      "akhi": 5778,
      "pret": 5779,
      "ĠMeer": 5780,
      "ilar": 5781,
      "Ġproper": 5782,
      "Ġvlug": 5783,
      "Ġkurs": 5784,
      "atsi": 5785,
      "Ġpunte": 5786,
      "Ġ2001": 5787,
      "ĠHaar": 5788,
      "alte": 5789,
      "Ġelection": 5790,
      "Ġbig": 5791,
      "Ġaward": 5792,
      "Ġrigting": 5793,
      "pese": 5794,
      "athol": 5795,
      "ĠChampionship": 5796,
      "weer": 5797,
      "versk": 5798,
      "ians": 5799,
      "Ġklere": 5800,
      "Ġtoelaat": 5801,
      "Ġstyl": 5802,
      "ĠGeneral": 5803,
      "ĠAustralia": 5804,
      "mos": 5805,
      "Ġukuf": 5806,
      "proses": 5807,
      "Ġtotal": 5808,
      "oordeel": 5809,
      ".âĢĻ": 5810,
      "hiqizo": 5811,
      "Bhay": 5812,
      "illed": 5813,
      "tuie": 5814,
      "Ġfuck": 5815,
      "oender": 5816,
      "Ġgemiddelde": 5817,
      "ĠAfrikaner": 5818,
      "uko": 5819,
      "Ġnod": 5820,
      "abi": 5821,
      "wig": 5822,
      "Ġbeplan": 5823,
      "Ġspecies": 5824,
      "htt": 5825,
      "wass": 5826,
      "Ġdirek": 5827,
      "Ġhitte": 5828,
      "ĠIndien": 5829,
      "Ġseuns": 5830,
      "ctive": 5831,
      "pies": 5832,
      "dering": 5833,
      "krag": 5834,
      "Ġeducation": 5835,
      "hard": 5836,
      "Ġbeleg": 5837,
      "ekayo": 5838,
      "Ab": 5839,
      "Ġxxx": 5840,
      "akala": 5841,
      "Ġmodern": 5842,
      "ĠJo": 5843,
      "Ġimportant": 5844,
      "Ġhospitaal": 5845,
      "Ġmetode": 5846,
      "Ġngesikhathi": 5847,
      "oorlog": 5848,
      "Ge": 5849,
      "Ġcreated": 5850,
      "rediet": 5851,
      "ombe": 5852,
      "Ġbors": 5853,
      "isela": 5854,
      ");": 5855,
      "Ġbladsy": 5856,
      "Ġuitstekende": 5857,
      "ource": 5858,
      "Ġvereis": 5859,
      "no": 5860,
      "ĠOos": 5861,
      "Ġbehulp": 5862,
      "ĠMel": 5863,
      "wind": 5864,
      "Ġspring": 5865,
      "ua": 5866,
      "ĠMichael": 5867,
      "Ġren": 5868,
      "kyk": 5869,
      "96": 5870,
      "Ġstudents": 5871,
      "Ġtermyn": 5872,
      "ĠsÃ³": 5873,
      "Ġsay": 5874,
      "Ġpen": 5875,
      "Ġoefen": 5876,
      "Ġtso": 5877,
      "ĠBeste": 5878,
      "Ġrand": 5879,
      "Ġintro": 5880,
      "Ġvaardig": 5881,
      "ĠEngelse": 5882,
      "estasie": 5883,
      "okh": 5884,
      "Ġinsluitend": 5885,
      "Ġvooraf": 5886,
      "ĠCouncil": 5887,
      "ledige": 5888,
      "embu": 5889,
      "Ġsuiker": 5890,
      "Ġmeest": 5891,
      "Ġblou": 5892,
      "Ġaksie": 5893,
      "ĠSun": 5894,
      "isiwe": 5895,
      "ĠNederland": 5896,
      "ĠCharles": 5897,
      "Ġdaaglikse": 5898,
      "ops": 5899,
      "Ġprofessionele": 5900,
      "vak": 5901,
      "Ġseo": 5902,
      "eper": 5903,
      "eller": 5904,
      "ĠModimo": 5905,
      "Ġgebruikers": 5906,
      "Ġkuz": 5907,
      "Ġbase": 5908,
      "Ġbott": 5909,
      "elko": 5910,
      "Ġmarried": 5911,
      "Ġkule": 5912,
      "ĠHel": 5913,
      "tle": 5914,
      "Ġaway": 5915,
      "uneka": 5916,
      "ĠMary": 5917,
      "Ġonafhank": 5918,
      "IM": 5919,
      "ĠSommige": 5920,
      "ih": 5921,
      "Ġgeskik": 5922,
      "ĠOok": 5923,
      "irs": 5924,
      "ĠAssociation": 5925,
      "Ġwest": 5926,
      "Ġvoedsel": 5927,
      "Ġgunsteling": 5928,
      "Ġnga": 5929,
      "ĠArmy": 5930,
      "Ġetsa": 5931,
      "Ġyoung": 5932,
      "Ġml": 5933,
      "Ter": 5934,
      "Ġyini": 5935,
      "Ġinwoners": 5936,
      "gress": 5937,
      "Ġsleutel": 5938,
      "ĠGreen": 5939,
      "ĠPlay": 5940,
      "Ġharde": 5941,
      "ĠLaw": 5942,
      "Ġgebrek": 5943,
      "uitse": 5944,
      "Ġkonke": 5945,
      "sequ": 5946,
      "cast": 5947,
      "Ġgesonde": 5948,
      "elsels": 5949,
      "Ġprofessional": 5950,
      "imbab": 5951,
      "Ġverbruik": 5952,
      "atho": 5953,
      "sep": 5954,
      "ĠRoyal": 5955,
      "DA": 5956,
      "Ġkuier": 5957,
      "isoa": 5958,
      "Ġwakho": 5959,
      "Ġreaksie": 5960,
      "laap": 5961,
      "ĠgeÃ«": 5962,
      "hoek": 5963,
      "Ġchurch": 5964,
      "Ġjoined": 5965,
      "Ġfre": 5966,
      "Ġbehoor": 5967,
      "Ġproduced": 5968,
      "Ġkaart": 5969,
      "Ġhowever": 5970,
      "Ġverdere": 5971,
      "Ġtegnologie": 5972,
      "Ġexamp": 5973,
      "Ġcomb": 5974,
      "owj": 5975,
      "Sh": 5976,
      "lete": 5977,
      "Ġiv": 5978,
      "iction": 5979,
      "Ġinformation": 5980,
      "Ġposition": 5981,
      "lh": 5982,
      "Ġmaatskappye": 5983,
      "umm": 5984,
      "Ġindividual": 5985,
      "Ġpositiewe": 5986,
      "beer": 5987,
      "Ġhulself": 5988,
      "Ġdefe": 5989,
      "Ġizing": 5990,
      "UL": 5991,
      "Ġabsol": 5992,
      "Ġproduction": 5993,
      "ĠVict": 5994,
      "Ġwan": 5995,
      "Ġneng": 5996,
      "Ġoond": 5997,
      "OK": 5998,
      "ĠMinister": 5999,
      "ilder": 6000,
      "verdig": 6001,
      "Ġuiters": 6002,
      "Ġabab": 6003,
      "alifornia": 6004,
      "ĠRad": 6005,
      "ukking": 6006,
      "Ġchem": 6007,
      "Ġtoneel": 6008,
      "ĠGeen": 6009,
      "indi": 6010,
      "Ġmoontlike": 6011,
      "Ġmarket": 6012,
      "Ġheg": 6013,
      "kers": 6014,
      "hixo": 6015,
      "ĠCor": 6016,
      "Ġround": 6017,
      "ilj": 6018,
      "ci": 6019,
      "Ġmakliker": 6020,
      "Ġwritten": 6021,
      "ensive": 6022,
      "Ġklink": 6023,
      "lee": 6024,
      "ĠgeleÃ«": 6025,
      "Ġ00": 6026,
      "Ġmoenie": 6027,
      "ĠEuropean": 6028,
      "Ġgebiede": 6029,
      "ĠkliÃ«nte": 6030,
      "Ġfut": 6031,
      "ĠðŁ": 6032,
      "uri": 6033,
      "Ġstory": 6034,
      "ĠWashington": 6035,
      "andeer": 6036,
      "Ġeo": 6037,
      "Ġassist": 6038,
      "!\"": 6039,
      "Ġresultate": 6040,
      "ĠEarly": 6041,
      "Ġgekies": 6042,
      "Ġvillage": 6043,
      "88": 6044,
      "lees": 6045,
      "ĠChristian": 6046,
      "Ġopged": 6047,
      "ĠStellenbosch": 6048,
      "IR": 6049,
      "Ġgroente": 6050,
      "Ġwild": 6051,
      "zib": 6052,
      "Ġverlies": 6053,
      "Ja": 6054,
      "ĠLet": 6055,
      "yns": 6056,
      "mus": 6057,
      "Ġboon": 6058,
      "uhl": 6059,
      "zimba": 6060,
      "Ġ1980": 6061,
      "roid": 6062,
      "ieter": 6063,
      "onderdag": 6064,
      "ift": 6065,
      "ĠTyd": 6066,
      "Ġ)": 6067,
      "Ġpartic": 6068,
      "cover": 6069,
      "77": 6070,
      "hlabeni": 6071,
      "Ġoortuig": 6072,
      "oensdag": 6073,
      "Ġweergawe": 6074,
      "cle": 6075,
      "ulum": 6076,
      "Ġbelie": 6077,
      "zil": 6078,
      "ĠGroup": 6079,
      "idlalo": 6080,
      "Ġfilms": 6081,
      "Ġ1994": 6082,
      "Ġprogramme": 6083,
      "Ø§": 6084,
      "anged": 6085,
      "Ġtend": 6086,
      "Ġopge": 6087,
      "Å¡i": 6088,
      "Ġplayer": 6089,
      "itale": 6090,
      "ĠGriek": 6091,
      "pak": 6092,
      "uza": 6093,
      "Ġgelees": 6094,
      "will": 6095,
      "xy": 6096,
      "oks": 6097,
      "Ġ45": 6098,
      "vrou": 6099,
      "ĠPeter": 6100,
      "ique": 6101,
      "malige": 6102,
      "ĠKers": 6103,
      "Ġonderwerp": 6104,
      "zy": 6105,
      "ĠEst": 6106,
      "Ġtafel": 6107,
      "ĠLee": 6108,
      "isc": 6109,
      "Ġwerklike": 6110,
      "erem": 6111,
      "enewens": 6112,
      "Ġkuye": 6113,
      "igtig": 6114,
      "ĠSand": 6115,
      "Ġprot": 6116,
      "Ġtru": 6117,
      "bak": 6118,
      "Ġgepraat": 6119,
      "osis": 6120,
      "Ġavailable": 6121,
      "ĠAccording": 6122,
      "Ġspelers": 6123,
      "pleeg": 6124,
      "Ġbevol": 6125,
      "Ġuph": 6126,
      "inet": 6127,
      "Ġcase": 6128,
      "irk": 6129,
      "Ġstreng": 6130,
      "Ġhelf": 6131,
      "Ġteach": 6132,
      "diese": 6133,
      "Ġvermy": 6134,
      "Ġut": 6135,
      "OV": 6136,
      "Ġparticip": 6137,
      "Ġvolledige": 6138,
      "Ð»": 6139,
      "ĠLouis": 6140,
      "ĠSen": 6141,
      "brand": 6142,
      "pass": 6143,
      "Ġ90": 6144,
      "Ġsamelewing": 6145,
      "Ġ--": 6146,
      "Ġ\"\"": 6147,
      "prent": 6148,
      "Ġhout": 6149,
      "Ġdarem": 6150,
      "ĠBet": 6151,
      "punte": 6152,
      "ihla": 6153,
      "idence": 6154,
      "Ġoptrede": 6155,
      "nag": 6156,
      "cin": 6157,
      "Ġversion": 6158,
      "Ġmate": 6159,
      "Ġsuper": 6160,
      "fil": 6161,
      "ĠAlle": 6162,
      "ĠMont": 6163,
      "ĠHERE": 6164,
      "bedryf": 6165,
      "ĠMex": 6166,
      "loy": 6167,
      "ĠCompany": 6168,
      "Ġnever": 6169,
      "uik": 6170,
      "beelde": 6171,
      "Ġlandbou": 6172,
      "ĠMoenie": 6173,
      "Ġtogether": 6174,
      "Ġreturned": 6175,
      "Ġtev": 6176,
      "ĠAmerica": 6177,
      "ĠIndian": 6178,
      "endag": 6179,
      "Ġmerk": 6180,
      "Ġbeleef": 6181,
      "Ġbinnek": 6182,
      "oro": 6183,
      "Ġrugby": 6184,
      "akan": 6185,
      "Ġ70": 6186,
      "ipedia": 6187,
      "okuba": 6188,
      "Ġrail": 6189,
      "Ġpet": 6190,
      "Ġklip": 6191,
      "Ġdryf": 6192,
      "ikela": 6193,
      "Ġwhite": 6194,
      "Ġkarakter": 6195,
      "Ġcost": 6196,
      "ĠBook": 6197,
      "Ġeienaar": 6198,
      "Ġmee": 6199,
      "Ġfond": 6200,
      "cher": 6201,
      "elkom": 6202,
      "Ġcr": 6203,
      "stant": 6204,
      "ĠAmerika": 6205,
      "utes": 6206,
      "insdag": 6207,
      "Ġnk": 6208,
      "Ġbegrip": 6209,
      "oso": 6210,
      "Ġleerders": 6211,
      "76": 6212,
      "Ġpret": 6213,
      "ground": 6214,
      "Ġcompos": 6215,
      "Ġfout": 6216,
      "ĠMusic": 6217,
      "Nk": 6218,
      "Ġdieet": 6219,
      "Ġoplossing": 6220,
      "Ġcapt": 6221,
      "Ġstatus": 6222,
      "OP": 6223,
      "ĠHall": 6224,
      "Ġnto": 6225,
      "ĠDaw": 6226,
      "Ġmatch": 6227,
      "bruik": 6228,
      "ĠLE": 6229,
      "Ġfar": 6230,
      "Ġbekommer": 6231,
      "ĠWarm": 6232,
      "Ġkusho": 6233,
      "rea": 6234,
      "hemb": 6235,
      "MS": 6236,
      "Ġslim": 6237,
      "oper": 6238,
      "oors": 6239,
      "Ġperson": 6240,
      "Ġeenheid": 6241,
      "akwa": 6242,
      "ĠGar": 6243,
      "Ġkwab": 6244,
      "inne": 6245,
      "Ġalre": 6246,
      "cing": 6247,
      "oga": 6248,
      "ĠMass": 6249,
      "Ġfurther": 6250,
      "ĠCalifornia": 6251,
      "Ġbedek": 6252,
      "undi": 6253,
      "ĠZe": 6254,
      "Me": 6255,
      "ably": 6256,
      "Ġkey": 6257,
      "Ġhot": 6258,
      "ĠCape": 6259,
      "Ġopgew": 6260,
      "wings": 6261,
      "isha": 6262,
      "Ġngokuthi": 6263,
      "jh": 6264,
      "Ġgeluk": 6265,
      "Ġhoewel": 6266,
      "ĠKomm": 6267,
      "asha": 6268,
      "Home": 6269,
      "Ġvoorkoms": 6270,
      "Ġfarm": 6271,
      "Ġuthi": 6272,
      "uphi": 6273,
      "inks": 6274,
      "Ġontle": 6275,
      "Ġmateriaal": 6276,
      "Ġvakansie": 6277,
      "iqu": 6278,
      "Ġworking": 6279,
      "ĠEuropese": 6280,
      "ĠPre": 6281,
      "Ġemva": 6282,
      "Yehova": 6283,
      "Ġ32": 6284,
      "Ġsand": 6285,
      "upha": 6286,
      "ving": 6287,
      "Ġuc": 6288,
      "orieÃ«": 6289,
      "plement": 6290,
      "site": 6291,
      "ĠDel": 6292,
      "Ġukwenza": 6293,
      "izabeth": 6294,
      "Ġmaal": 6295,
      "akers": 6296,
      "weba": 6297,
      "Ġidees": 6298,
      "Ġslegte": 6299,
      "kry": 6300,
      "dam": 6301,
      "Ġregs": 6302,
      "ĠArab": 6303,
      "Ġmilitary": 6304,
      "Ġplaasvind": 6305,
      "foon": 6306,
      "Ġrekenaar": 6307,
      "ĠMount": 6308,
      "Ġrelations": 6309,
      "elang": 6310,
      "Ġgag": 6311,
      "igting": 6312,
      "imbabwe": 6313,
      "Ġstudy": 6314,
      "qib": 6315,
      "Ġfees": 6316,
      "Zulu": 6317,
      "ĠAngel": 6318,
      "ĠRoman": 6319,
      "asy": 6320,
      "Ġrock": 6321,
      "olis": 6322,
      "Ġaanged": 6323,
      "merke": 6324,
      "Ġvoortd": 6325,
      "Ġpay": 6326,
      "Ġgebly": 6327,
      "Ġsett": 6328,
      "gevoeg": 6329,
      "Ġlost": 6330,
      "Ġinflu": 6331,
      "Ġunieke": 6332,
      "ĠFirst": 6333,
      "Ġeiendom": 6334,
      "!âĢĿ": 6335,
      "ĠFotos": 6336,
      "II": 6337,
      "urity": 6338,
      "styl": 6339,
      "Ġconne": 6340,
      "akes": 6341,
      "Ġvinnige": 6342,
      "Ġngendlela": 6343,
      "Ġmaking": 6344,
      "etshenziswa": 6345,
      "valle": 6346,
      "ror": 6347,
      "agram": 6348,
      "Ġservices": 6349,
      "Ġuitgeb": 6350,
      "ĠCanada": 6351,
      "Ġregist": 6352,
      "Ġlyn": 6353,
      "ĠFlor": 6354,
      "bur": 6355,
      "ishing": 6356,
      "verage": 6357,
      "arings": 6358,
      "pels": 6359,
      "ethe": 6360,
      "Nou": 6361,
      "Ġkorrek": 6362,
      "Ġkut": 6363,
      "Ġattem": 6364,
      "gestelde": 6365,
      "Ġcontinued": 6366,
      "ellow": 6367,
      "Ġlaas": 6368,
      "iting": 6369,
      "Ġgekoop": 6370,
      "oom": 6371,
      "Ġarch": 6372,
      "Ġindawo": 6373,
      "kings": 6374,
      "iri": 6375,
      "Ġlaer": 6376,
      "Ġwife": 6377,
      "oti": 6378,
      "ĠKat": 6379,
      "umele": 6380,
      "emor": 6381,
      "Ġredelik": 6382,
      "Ġgetu": 6383,
      "dem": 6384,
      "Ġwinkel": 6385,
      "aai": 6386,
      "Ġmoed": 6387,
      "Ġukun": 6388,
      "nes": 6389,
      "RE": 6390,
      "Ġuitgevoer": 6391,
      "Ġseisoen": 6392,
      "Ġug": 6393,
      "ĠDistrict": 6394,
      "Ġconsidered": 6395,
      "ĠFrance": 6396,
      "Ġvanuit": 6397,
      "Ġlevel": 6398,
      "angela": 6399,
      "Ġgebe": 6400,
      "Ġvoldoen": 6401,
      "Ġsteek": 6402,
      "Ġsukkel": 6403,
      "ografie": 6404,
      "yfel": 6405,
      "time": 6406,
      "Ġvernietig": 6407,
      "open": 6408,
      "istan": 6409,
      "Ġblare": 6410,
      "tings": 6411,
      "Ġlove": 6412,
      "ukhulu": 6413,
      "annie": 6414,
      "ext": 6415,
      "Ġhelfte": 6416,
      "ĠProgram": 6417,
      "Ġspoor": 6418,
      "aas": 6419,
      "tsha": 6420,
      "sed": 6421,
      "irit": 6422,
      "Ġdistrict": 6423,
      "Ġlas": 6424,
      "Ġpromot": 6425,
      "loer": 6426,
      "werpe": 6427,
      "ulula": 6428,
      "Ġhoender": 6429,
      "ĠTot": 6430,
      "ĠBur": 6431,
      "organ": 6432,
      "kan": 6433,
      "TV": 6434,
      "enaars": 6435,
      "ĠCourt": 6436,
      "Soos": 6437,
      "ĠBon": 6438,
      "ĠPM": 6439,
      "rade": 6440,
      "Dan": 6441,
      "itted": 6442,
      "Ġesikh": 6443,
      "Ġ1999": 6444,
      "oots": 6445,
      "wendig": 6446,
      "uidelike": 6447,
      "It": 6448,
      "mot": 6449,
      "ĠBeg": 6450,
      "amile": 6451,
      "mense": 6452,
      "ption": 6453,
      "akazi": 6454,
      "Ġkern": 6455,
      "Â°": 6456,
      "year": 6457,
      "Ġopdrag": 6458,
      "enner": 6459,
      "waardig": 6460,
      "asturb": 6461,
      "col": 6462,
      "etiese": 6463,
      "etsi": 6464,
      "esif": 6465,
      "Ġaman": 6466,
      "Ġdepartement": 6467,
      "iening": 6468,
      "ĠBre": 6469,
      "Ġhere": 6470,
      "ĠNetwerk": 6471,
      "aper": 6472,
      "Ġaansien": 6473,
      "Ġsiz": 6474,
      "dl": 6475,
      "Ġhiervan": 6476,
      "Ġtax": 6477,
      "Ġverdag": 6478,
      "dy": 6479,
      "alley": 6480,
      "ughter": 6481,
      "stens": 6482,
      "ĠWestern": 6483,
      "Ġkoue": 6484,
      "df": 6485,
      "Thixo": 6486,
      "Ġothers": 6487,
      "igr": 6488,
      "Ġgrootte": 6489,
      "Ġaande": 6490,
      "Ġwaarna": 6491,
      "ĠKr": 6492,
      "Ġlanguage": 6493,
      "ification": 6494,
      "uriteit": 6495,
      "ĠHill": 6496,
      "Ġregion": 6497,
      "Ġukuk": 6498,
      "Ġeza": 6499,
      "ĠÃ³": 6500,
      "ĠMen": 6501,
      "Ġesel": 6502,
      "aze": 6503,
      "Ġfant": 6504,
      "ĠRock": 6505,
      "Ġgevol": 6506,
      "Ġkil": 6507,
      "ĠFranse": 6508,
      "Ġtlo": 6509,
      "Ġjour": 6510,
      "Ġwena": 6511,
      "CD": 6512,
      "uge": 6513,
      "ĠDay": 6514,
      "Ġabanye": 6515,
      "athini": 6516,
      "97": 6517,
      "Ġngum": 6518,
      "amm": 6519,
      "Ġfront": 6520,
      "linge": 6521,
      "Ġwerks": 6522,
      "Ġhistoriese": 6523,
      "Ġtotale": 6524,
      "ogo": 6525,
      "Ġtelevision": 6526,
      "IP": 6527,
      "lan": 6528,
      "Ġbuild": 6529,
      "Ġgehalte": 6530,
      "Ġhealth": 6531,
      "Lees": 6532,
      "ĠPersoonlike": 6533,
      "Ġbymekaar": 6534,
      "Ġbeveel": 6535,
      "Ġsenior": 6536,
      "viron": 6537,
      "ĠPlus": 6538,
      "He": 6539,
      "lav": 6540,
      "ĠJehovah": 6541,
      "trent": 6542,
      "ĠCamp": 6543,
      "ĠDon": 6544,
      "ĠSelfs": 6545,
      "wam": 6546,
      "DE": 6547,
      "ĠWie": 6548,
      "ference": 6549,
      "bronne": 6550,
      "Ġnas": 6551,
      "Ġgef": 6552,
      "ĠPen": 6553,
      "ĠBas": 6554,
      "Ġdoeltreff": 6555,
      "Ġtrots": 6556,
      "Ġ1998": 6557,
      "Ġbit": 6558,
      "Ġnor": 6559,
      "Ġfoc": 6560,
      "ability": 6561,
      "Ġ05": 6562,
      "estival": 6563,
      "Tube": 6564,
      "aged": 6565,
      "ĠKore": 6566,
      "ugde": 6567,
      "Ġsat": 6568,
      "ii": 6569,
      "Ġtaak": 6570,
      "Ġcontrib": 6571,
      "Ġhon": 6572,
      "eba": 6573,
      "Ġkunst": 6574,
      "ĠSE": 6575,
      "ĠVrystaat": 6576,
      "Ġlearn": 6577,
      "Ġbur": 6578,
      "Ġstruct": 6579,
      "Ġdescribed": 6580,
      "Ġlem": 6581,
      "chie": 6582,
      "Ġrelig": 6583,
      "Ġnad": 6584,
      "Ke": 6585,
      "hemale": 6586,
      "Ġgeboorte": 6587,
      "qiniso": 6588,
      "66": 6589,
      "aries": 6590,
      "Ġlokho": 6591,
      "ĠSeun": 6592,
      "imate": 6593,
      "ittee": 6594,
      "xenye": 6595,
      "Ġreported": 6596,
      "ren": 6597,
      "Ġbakhe": 6598,
      "erusalem": 6599,
      "Ġkwaad": 6600,
      "dlalo": 6601,
      "Ġseine": 6602,
      "Ġvoertuig": 6603,
      "Ġgevolge": 6604,
      "Ġslaan": 6605,
      "ĠWit": 6606,
      "ontrak": 6607,
      "heshe": 6608,
      "Ġgister": 6609,
      "okuqala": 6610,
      "anny": 6611,
      "ĠMidd": 6612,
      "Ġsimilar": 6613,
      "indaba": 6614,
      "ĠBos": 6615,
      "Ġmanne": 6616,
      "ĠNaak": 6617,
      "ĠWoensdag": 6618,
      "ĠScott": 6619,
      "Ġondervind": 6620,
      "ipe": 6621,
      "Ġspeletjies": 6622,
      "ĠAfrikaners": 6623,
      "akhul": 6624,
      "Ġapart": 6625,
      "Eng": 6626,
      "ĠOut": 6627,
      "hub": 6628,
      "istes": 6629,
      "ãĤ": 6630,
      "Ġwisselko": 6631,
      "Ġhoofsaaklik": 6632,
      "Ġnogal": 6633,
      "dienste": 6634,
      "Ġoppervlak": 6635,
      "paar": 6636,
      "Ġstraf": 6637,
      "Ġoffice": 6638,
      "ĠSir": 6639,
      "ĠRichard": 6640,
      "weng": 6641,
      "Ġ1970": 6642,
      "Ġsignific": 6643,
      "ĠIsland": 6644,
      "Ġhuise": 6645,
      "Ġngakho": 6646,
      "itam": 6647,
      "Ġstyle": 6648,
      "ĠDonderdag": 6649,
      "Ġfounded": 6650,
      "Ġhig": 6651,
      "Ġverdwyn": 6652,
      "cel": 6653,
      "ald": 6654,
      "ĠFeder": 6655,
      "Wh": 6656,
      "ĠLek": 6657,
      "ĠHuis": 6658,
      "Ġgevang": 6659,
      "Ġcert": 6660,
      "ĠâĤ¬": 6661,
      "elel": 6662,
      "Ġdeg": 6663,
      "Ġtyp": 6664,
      "usting": 6665,
      "Ġbehalwe": 6666,
      "Ġklomp": 6667,
      "teur": 6668,
      "hole": 6669,
      "Ġbereid": 6670,
      "ĠRou": 6671,
      "Ġeks": 6672,
      "onge": 6673,
      "Ġverklaring": 6674,
      "Ġfir": 6675,
      "stroom": 6676,
      "opt": 6677,
      "Ġfire": 6678,
      "anj": 6679,
      "Ġreageer": 6680,
      "Ġtoepassing": 6681,
      "ĠJust": 6682,
      "hoof": 6683,
      "500": 6684,
      "Ġbehoeftes": 6685,
      "HE": 6686,
      "ĠBus": 6687,
      "ĠAnn": 6688,
      "vangelie": 6689,
      "Ġdop": 6690,
      "ĠBloem": 6691,
      "Ġvervoer": 6692,
      "auteng": 6693,
      "Ġrap": 6694,
      "ĠreÃ«l": 6695,
      "Ġversorg": 6696,
      "ĠJeho": 6697,
      "Ġenj": 6698,
      "Ġbegeer": 6699,
      "hus": 6700,
      "qondo": 6701,
      "abanga": 6702,
      "rae": 6703,
      "isayo": 6704,
      "ĠWood": 6705,
      "Ġkoffie": 6706,
      "see": 6707,
      "Ġ?": 6708,
      "ĠTim": 6709,
      "Ġkonf": 6710,
      "dent": 6711,
      "ĠOpen": 6712,
      "olu": 6713,
      "hood": 6714,
      "Ġtradisionele": 6715,
      "Ġgebeure": 6716,
      "ristu": 6717,
      "Ne": 6718,
      "Ġwaarvoor": 6719,
      "gemaakte": 6720,
      "ego": 6721,
      "mod": 6722,
      "Ġtraining": 6723,
      "ĠElizabeth": 6724,
      "Ġacross": 6725,
      "Ġimpro": 6726,
      "Ġongeluk": 6727,
      "Ind": 6728,
      "Ġprior": 6729,
      "Ġkaarte": 6730,
      "Ġproduksie": 6731,
      "Ġbemark": 6732,
      "ĠMich": 6733,
      "Ġvoete": 6734,
      "Ġroad": 6735,
      "Ġaangew": 6736,
      "Ġdin": 6737,
      "Ġonce": 6738,
      "Ġligte": 6739,
      "arg": 6740,
      "Ġgrade": 6741,
      "Ġversigtig": 6742,
      "lha": 6743,
      "ĠCommun": 6744,
      "AF": 6745,
      "ston": 6746,
      "Ġsiektes": 6747,
      "borg": 6748,
      "ĠChristene": 6749,
      "iller": 6750,
      "aksies": 6751,
      "Ġgeleenthede": 6752,
      "nye": 6753,
      "RO": 6754,
      "Ġvoorheen": 6755,
      "Ġmonths": 6756,
      "ohol": 6757,
      "azine": 6758,
      "iest": 6759,
      "ĠGed": 6760,
      "ĠGebruik": 6761,
      "Ġprent": 6762,
      "ebel": 6763,
      "ises": 6764,
      "Ġpoging": 6765,
      "enj": 6766,
      "Ġdou": 6767,
      "Ġgepubliseer": 6768,
      "ĠHome": 6769,
      "ands": 6770,
      "Ġfliek": 6771,
      "Ġspoed": 6772,
      "engo": 6773,
      "Ġgradu": 6774,
      "ĠAT": 6775,
      "Ġmeerder": 6776,
      "house": 6777,
      "Ġgras": 6778,
      "Ġskou": 6779,
      "Ġlead": 6780,
      "Ġ01": 6781,
      "Ġitems": 6782,
      "ademy": 6783,
      "fu": 6784,
      "ektiewe": 6785,
      "Ġaandel": 6786,
      "Ġsomer": 6787,
      "ĠNiger": 6788,
      "ĠCha": 6789,
      "ega": 6790,
      "byt": 6791,
      "iseerde": 6792,
      "Ġvict": 6793,
      "elig": 6794,
      "ĠDinsdag": 6795,
      "Ġverwerk": 6796,
      "AB": 6797,
      "ĠSod": 6798,
      "Ġwedstryd": 6799,
      "tit": 6800,
      "Ġlets": 6801,
      "azwe": 6802,
      "Ġvm": 6803,
      "Ġgesit": 6804,
      "Ġcum": 6805,
      "Ġskiet": 6806,
      "gevind": 6807,
      "Ġmab": 6808,
      "Ġvon": 6809,
      "Ġpur": 6810,
      "Ġernstig": 6811,
      "ential": 6812,
      "tries": 6813,
      "Ġkoer": 6814,
      "Ġexist": 6815,
      "ĠDivision": 6816,
      "kies": 6817,
      "stems": 6818,
      "ĠLife": 6819,
      "istic": 6820,
      "edy": 6821,
      "ugu": 6822,
      "Ġlight": 6823,
      "Ġbond": 6824,
      "iveer": 6825,
      "Ġterme": 6826,
      "ouse": 6827,
      "law": 6828,
      "Ġtoegelaat": 6829,
      "Ġhop": 6830,
      "Aan": 6831,
      "Ġgeskenk": 6832,
      "Ġnegatiewe": 6833,
      "utive": 6834,
      "hola": 6835,
      "ocrat": 6836,
      "Ġdeveloped": 6837,
      "Ġopened": 6838,
      "utions": 6839,
      "ĠOs": 6840,
      "Ġbehou": 6841,
      "Ġmeter": 6842,
      "Ġras": 6843,
      "Ġepisode": 6844,
      "Ġbroad": 6845,
      "ĠSant": 6846,
      "Ġvoors": 6847,
      "leko": 6848,
      "ither": 6849,
      "ĠGal": 6850,
      "Ġngokus": 6851,
      "Ġvermoed": 6852,
      "Ġbestanddele": 6853,
      "Ġbroer": 6854,
      "rywing": 6855,
      "opo": 6856,
      "ĠNd": 6857,
      "Ġafges": 6858,
      "ĠRet": 6859,
      "Ġgroepe": 6860,
      "terf": 6861,
      "ĠSkrif": 6862,
      "iskien": 6863,
      "198": 6864,
      "lÃª": 6865,
      "Ġwenke": 6866,
      "ogen": 6867,
      "valu": 6868,
      "jekte": 6869,
      "obal": 6870,
      "ikeza": 6871,
      "Ġlyf": 6872,
      "Ġbrein": 6873,
      "ĠTerwyl": 6874,
      "ĠMuseum": 6875,
      "Ġopvoed": 6876,
      "ares": 6877,
      "nee": 6878,
      "Ġinstit": 6879,
      "ĠInc": 6880,
      "ĠDuitse": 6881,
      "Ġgewys": 6882,
      "ERS": 6883,
      "Ġbruin": 6884,
      "Ġsif": 6885,
      "Ġ38": 6886,
      "angerskap": 6887,
      "emente": 6888,
      "Ġliving": 6889,
      "ias": 6890,
      "Ġsigned": 6891,
      "ered": 6892,
      "Ġonmiddellik": 6893,
      "Ġsiy": 6894,
      "ĠPal": 6895,
      "west": 6896,
      "most": 6897,
      "Ġprop": 6898,
      "enziwe": 6899,
      "zer": 6900,
      "Ġkanjani": 6901,
      "Ġstandaard": 6902,
      "ĠNatuur": 6903,
      "ĠDat": 6904,
      "ĠChris": 6905,
      "ywe": 6906,
      "Ġuq": 6907,
      "ĠPlaaslike": 6908,
      "Ġnek": 6909,
      "Ġuya": 6910,
      "Ġaccess": 6911,
      "Ġaut": 6912,
      "ĠAlhoewel": 6913,
      "breng": 6914,
      "ores": 6915,
      "Ġproduc": 6916,
      "ify": 6917,
      "ĠCasino": 6918,
      "erland": 6919,
      "Ġvertrek": 6920,
      "Ġbedrag": 6921,
      "Ġzabo": 6922,
      "Ġbetrou": 6923,
      "ĠArg": 6924,
      "ĠWhile": 6925,
      "etes": 6926,
      "reken": 6927,
      "Ġverho": 6928,
      "udi": 6929,
      "ĠInstitute": 6930,
      "jare": 6931,
      "Ġoral": 6932,
      "Ġemhlabeni": 6933,
      "dit": 6934,
      "Ġrelease": 6935,
      "Ġkwem": 6936,
      "icy": 6937,
      "igned": 6938,
      "empela": 6939,
      "Ġvee": 6940,
      "usion": 6941,
      "Ġinj": 6942,
      "Ġfunksies": 6943,
      "Ġmedium": 6944,
      "Ġcirc": 6945,
      "Ġmunisip": 6946,
      "Ġukuhl": 6947,
      "Ġformula": 6948,
      "rump": 6949,
      "Ġsog": 6950,
      "ĠTube": 6951,
      "Ġstrek": 6952,
      "Ġaddition": 6953,
      "ĠBinÃªre": 6954,
      "Ġhonder": 6955,
      "Ġsus": 6956,
      "Het": 6957,
      "Ġkrediet": 6958,
      "Ġklass": 6959,
      "Ġgebed": 6960,
      "las": 6961,
      "Ġjul": 6962,
      "inq": 6963,
      "ĠHenry": 6964,
      "ĠCenter": 6965,
      "ĠFrancis": 6966,
      "ĠChristelike": 6967,
      "erry": 6968,
      "Ġeier": 6969,
      "pression": 6970,
      "ĠTestament": 6971,
      "Ġdecl": 6972,
      "ensus": 6973,
      "FF": 6974,
      "Ġsch": 6975,
      "Ġsuksesvol": 6976,
      "Ġbeleggings": 6977,
      "ĠMur": 6978,
      "Ġmother": 6979,
      "Ñĥ": 6980,
      "wele": 6981,
      "Ġbelof": 6982,
      "Ġdwel": 6983,
      "Ġhapp": 6984,
      "oa": 6985,
      "Ġkantoor": 6986,
      "Ġgewen": 6987,
      "toon": 6988,
      "Ġtaken": 6989,
      "Ġ33": 6990,
      "Ġnaamlik": 6991,
      "Ġoproep": 6992,
      "ptome": 6993,
      "wit": 6994,
      "ĠSociety": 6995,
      "Ġyethu": 6996,
      "Ġhoek": 6997,
      "Ġandere": 6998,
      "ori": 6999,
      "Ġkuka": 7000,
      "Ġground": 7001,
      "Ġhartseer": 7002,
      "pot": 7003,
      "ilet": 7004,
      "ugcina": 7005,
      "alisa": 7006,
      "ĠMun": 7007,
      "awu": 7008,
      "Ġdoc": 7009,
      "Ġmisdaad": 7010,
      "Ġverhoudings": 7011,
      "New": 7012,
      "Ġbeweer": 7013,
      "Ġskielik": 7014,
      "Meer": 7015,
      "Ġtable": 7016,
      "Ġimpak": 7017,
      "raham": 7018,
      "Ġindepend": 7019,
      "Gen": 7020,
      "'.": 7021,
      "alling": 7022,
      "Ġminimum": 7023,
      "Ġezimb": 7024,
      "ĠTex": 7025,
      "Ġgeneig": 7026,
      "Ġ1996": 7027,
      "omet": 7028,
      "ahla": 7029,
      "ĠTwitter": 7030,
      "ĠâĢĿ": 7031,
      "Ġappointed": 7032,
      "ĠMid": 7033,
      "funda": 7034,
      "ump": 7035,
      "Ġstrong": 7036,
      "ĠPress": 7037,
      "Ġsoorte": 7038,
      "atform": 7039,
      "fect": 7040,
      "Ġball": 7041,
      "Ġtoekom": 7042,
      "men": 7043,
      "Ġappeared": 7044,
      "Ġvryheid": 7045,
      "Voor": 7046,
      "bour": 7047,
      "Ġformed": 7048,
      "eman": 7049,
      "annese": 7050,
      "Ġheerlike": 7051,
      "intsha": 7052,
      "aga": 7053,
      "God": 7054,
      "Ġcoll": 7055,
      "Ġrat": 7056,
      "Ġspandeer": 7057,
      "Ġplaasgevind": 7058,
      "Ġene": 7059,
      "Ġkleiner": 7060,
      "ĠRoo": 7061,
      "boom": 7062,
      "ĠVis": 7063,
      "Ġ300": 7064,
      "Ġizink": 7065,
      "ested": 7066,
      "mond": 7067,
      "Ġcele": 7068,
      "Ġaantrek": 7069,
      "Ġeffens": 7070,
      "ĠNot": 7071,
      "rewe": 7072,
      "Ġregter": 7073,
      "okkies": 7074,
      "::": 7075,
      "Ġmeen": 7076,
      "Ġvertroue": 7077,
      "Ġdeposito": 7078,
      "Ġvoormalige": 7079,
      "ĠFilm": 7080,
      "Ġdirector": 7081,
      "kaart": 7082,
      "wee": 7083,
      "Ġaanval": 7084,
      "Ġpersoneel": 7085,
      "Ġgagwe": 7086,
      "Ġgekyk": 7087,
      "oya": 7088,
      "ĠGermany": 7089,
      "Ġskerp": 7090,
      "tery": 7091,
      "Ġtou": 7092,
      "Ġwens": 7093,
      "Ġhimself": 7094,
      "ĠIf": 7095,
      "Ġmening": 7096,
      "onakala": 7097,
      "Ġsuff": 7098,
      "Ġrespons": 7099,
      "Ġbehaal": 7100,
      "ĠSpring": 7101,
      "Ġstam": 7102,
      "Ġngokuph": 7103,
      "ĠDu": 7104,
      "ulela": 7105,
      "oÃ¯": 7106,
      "maatskap": 7107,
      "Ġtemp": 7108,
      "Ġnee": 7109,
      "iday": 7110,
      "ĠSur": 7111,
      "Ġbesonderhede": 7112,
      "Ġfood": 7113,
      "lys": 7114,
      "rivier": 7115,
      "Ġblom": 7116,
      "pite": 7117,
      "khulu": 7118,
      "enaamde": 7119,
      "Ġ1960": 7120,
      "Ġverwagting": 7121,
      "ĠPaar": 7122,
      "lies": 7123,
      "Ġmeestal": 7124,
      "Ġstorm": 7125,
      "Ġbraai": 7126,
      "Ġexample": 7127,
      "ends": 7128,
      "erstand": 7129,
      "Ġintegr": 7130,
      "dorp": 7131,
      "Ġtegniese": 7132,
      "Ġtale": 7133,
      "aniso": 7134,
      "Ġchild": 7135,
      "roug": 7136,
      "Ġrecorded": 7137,
      "werke": 7138,
      "Ġ;": 7139,
      "Ġsoet": 7140,
      "Ġvolwass": 7141,
      "udala": 7142,
      "PN": 7143,
      "antwana": 7144,
      "offer": 7145,
      "WE": 7146,
      "afe": 7147,
      "',": 7148,
      "Ġdebut": 7149,
      "Ġwakker": 7150,
      "semb": 7151,
      "Ġsebel": 7152,
      "moont": 7153,
      "ĠJehofa": 7154,
      "Ġonderrig": 7155,
      "oniese": 7156,
      "Ġmean": 7157,
      "Ġtoestel": 7158,
      "Ġuthe": 7159,
      "Se": 7160,
      "Ġstrand": 7161,
      "Ġpress": 7162,
      "roughout": 7163,
      "Ġkateg": 7164,
      "Ġtrack": 7165,
      "ĠTeen": 7166,
      "ĠGaan": 7167,
      "Ġmiss": 7168,
      "iner": 7169,
      "Ġindruk": 7170,
      "onald": 7171,
      "Ġbeleid": 7172,
      "Ġswangerskap": 7173,
      "ĠÎ": 7174,
      "woordigheid": 7175,
      "umn": 7176,
      "Ġ1997": 7177,
      "lie": 7178,
      "Ġbetref": 7179,
      "Um": 7180,
      "zing": 7181,
      "odi": 7182,
      "sen": 7183,
      "Ġmuur": 7184,
      "Ġhelder": 7185,
      "Ġseen": 7186,
      "Ġgedeelte": 7187,
      "Ġingesluit": 7188,
      "vironment": 7189,
      "Ġdetail": 7190,
      "Kyk": 7191,
      "iga": 7192,
      "Ġtre": 7193,
      "amed": 7194,
      "Ġsis": 7195,
      "ĠreÃ«ls": 7196,
      "Ġverval": 7197,
      "Ġgewilde": 7198,
      "Ġwaarsku": 7199,
      "rate": 7200,
      "ioen": 7201,
      "esdae": 7202,
      "ĠGrand": 7203,
      "Ġpor": 7204,
      "volution": 7205,
      "Ġspr": 7206,
      "Ġoordeel": 7207,
      "regte": 7208,
      "ĠKwa": 7209,
      "Ġaktiwiteite": 7210,
      "Ġerf": 7211,
      "yaka": 7212,
      "Ġblomme": 7213,
      "ply": 7214,
      "Afrikaners": 7215,
      "ĠDepartment": 7216,
      "ustom": 7217,
      "gas": 7218,
      "ĠLater": 7219,
      "Ġpoints": 7220,
      "usha": 7221,
      "94": 7222,
      "ydse": 7223,
      "walo": 7224,
      "Ġgeldeenheid": 7225,
      "Ġkwaliteit": 7226,
      "ĠUl": 7227,
      "cam": 7228,
      "Ġpaint": 7229,
      "Ġhaholo": 7230,
      "istry": 7231,
      "ĠSqu": 7232,
      "ĠWork": 7233,
      "ĠMaria": 7234,
      "Ġngal": 7235,
      "enners": 7236,
      "Ġagtergrond": 7237,
      "Ġuniversiteit": 7238,
      "ĠKey": 7239,
      "arri": 7240,
      "Ġdev": 7241,
      "Ġstraat": 7242,
      "Ġoppos": 7243,
      "olds": 7244,
      "Ġphys": 7245,
      "gings": 7246,
      "ĠMartin": 7247,
      "Ġsongs": 7248,
      "oefen": 7249,
      "rary": 7250,
      "apannese": 7251,
      "lor": 7252,
      "termyn": 7253,
      "Ġversterk": 7254,
      "ĠCap": 7255,
      "Ġyabo": 7256,
      "Ġkonsep": 7257,
      "Ġlis": 7258,
      "Ġsuccessful": 7259,
      "td": 7260,
      "Ġsize": 7261,
      "Ġpubliek": 7262,
      "Ġaverage": 7263,
      "Ġpotens": 7264,
      "Ġbotter": 7265,
      "oming": 7266,
      "elose": 7267,
      "ĠSome": 7268,
      "ĠSpan": 7269,
      "itee": 7270,
      "Ġeast": 7271,
      "ĠMiss": 7272,
      "Ġfisiese": 7273,
      "Ġrit": 7274,
      "Ġverpl": 7275,
      "aland": 7276,
      "ĠKoninkryk": 7277,
      "Ġkreat": 7278,
      "Jes": 7279,
      "tuele": 7280,
      "ĠEc": 7281,
      "cane": 7282,
      "Ġable": 7283,
      "ĠSub": 7284,
      "Ġgraad": 7285,
      "Ġtwyfel": 7286,
      "ĠJapanese": 7287,
      "stal": 7288,
      "ĠOpt": 7289,
      "luite": 7290,
      "urban": 7291,
      "Ġopening": 7292,
      "Ġsogenaamde": 7293,
      "Ġplanne": 7294,
      "Ġ37": 7295,
      "Ġvot": 7296,
      "qinisek": 7297,
      "obus": 7298,
      "lace": 7299,
      "Ġyase": 7300,
      "Ġbaz": 7301,
      "ĠStad": 7302,
      "Ġomtrent": 7303,
      "reÃ«ls": 7304,
      "ĠNog": 7305,
      "Ġresensies": 7306,
      "Ġoz": 7307,
      "vy": 7308,
      "Ġvele": 7309,
      "xim": 7310,
      "Ġbonus": 7311,
      ".âĢĶ": 7312,
      "Ġmoeilike": 7313,
      "Ġdatum": 7314,
      "Ġess": 7315,
      "likes": 7316,
      "Nie": 7317,
      "ĠGreat": 7318,
      "area": 7319,
      "Ġrace": 7320,
      "aign": 7321,
      "ils": 7322,
      "Ġloss": 7323,
      "Ġ34": 7324,
      "ĠDire": 7325,
      "Ġrecogn": 7326,
      "ayela": 7327,
      "Ġamath": 7328,
      "Ġbygevoeg": 7329,
      "ician": 7330,
      "Ġgroe": 7331,
      "medi": 7332,
      "ĠLo": 7333,
      "Ġlie": 7334,
      "Ġberoep": 7335,
      "wab": 7336,
      "Ġkukhona": 7337,
      "Ġperman": 7338,
      "ĠGauteng": 7339,
      "ĠJohan": 7340,
      "alulekile": 7341,
      "groei": 7342,
      "irth": 7343,
      "ĠAustralian": 7344,
      "Ġukung": 7345,
      "gelyke": 7346,
      "aleni": 7347,
      "ĠHealth": 7348,
      "Ġinit": 7349,
      "ĠGa": 7350,
      "park": 7351,
      "was": 7352,
      "Ġ48": 7353,
      "ĠBou": 7354,
      "ĠAward": 7355,
      "fin": 7356,
      "elelo": 7357,
      "uise": 7358,
      "ĠRail": 7359,
      "ĠIng": 7360,
      "ĠSon": 7361,
      "idar": 7362,
      "ĠTown": 7363,
      "stead": 7364,
      "ĠBlue": 7365,
      "bar": 7366,
      "iser": 7367,
      "wekk": 7368,
      "Ġgetoon": 7369,
      "Ġwerke": 7370,
      "wadi": 7371,
      "Ġysk": 7372,
      "Ġwebwerwe": 7373,
      "tor": 7374,
      "wyk": 7375,
      "Ġstof": 7376,
      "Ġvoorwaar": 7377,
      "sing": 7378,
      "eniging": 7379,
      "Ġhuur": 7380,
      "Ġamptelike": 7381,
      "ests": 7382,
      "ĠCov": 7383,
      "AG": 7384,
      "Ġkonst": 7385,
      "rone": 7386,
      "umba": 7387,
      "ĠDen": 7388,
      "Ġzom": 7389,
      "groot": 7390,
      "Ġblock": 7391,
      "Ġherhaal": 7392,
      "inz": 7393,
      "Ġorganisasie": 7394,
      "ĠGeorg": 7395,
      "ĠBack": 7396,
      "Ġnodige": 7397,
      "Forex": 7398,
      "gebruik": 7399,
      "con": 7400,
      "ĠHard": 7401,
      "qhubeka": 7402,
      "ĠBrown": 7403,
      "Ġtum": 7404,
      "akelaars": 7405,
      "Ġchange": 7406,
      "ava": 7407,
      "Ġinterpret": 7408,
      "ĠBig": 7409,
      "NS": 7410,
      "sion": 7411,
      "ĠRussian": 7412,
      "Kom": 7413,
      "Ġplaying": 7414,
      "Ġlaai": 7415,
      "eperk": 7416,
      "Ġrona": 7417,
      "wep": 7418,
      "ources": 7419,
      "ĠVAN": 7420,
      "Ġsuggest": 7421,
      "Ġmotho": 7422,
      "ziph": 7423,
      "Ġnna": 7424,
      "eno": 7425,
      "ĠOntmoeting": 7426,
      "iesel": 7427,
      "atory": 7428,
      "ĠAndr": 7429,
      "ened": 7430,
      "Ġpolice": 7431,
      "onisa": 7432,
      "AV": 7433,
      "Ġspyte": 7434,
      "ĠMilf": 7435,
      "ania": 7436,
      "ĠCons": 7437,
      "hon": 7438,
      "isl": 7439,
      "**": 7440,
      "Ġwhe": 7441,
      "ĠEb": 7442,
      "Ġgave": 7443,
      "Ġkuya": 7444,
      "Ġnoord": 7445,
      "fana": 7446,
      "Ġvreugde": 7447,
      "ĠPs": 7448,
      "iba": 7449,
      "ĠHoekom": 7450,
      "Ġwerkers": 7451,
      "Ġgeur": 7452,
      "went": 7453,
      "ufact": 7454,
      "ĠSwe": 7455,
      "teken": 7456,
      "uthuk": 7457,
      "bit": 7458,
      "Ġzing": 7459,
      "Ġgelowiges": 7460,
      "ithombe": 7461,
      "-,": 7462,
      "Ġ1995": 7463,
      "aming": 7464,
      "Ġeiers": 7465,
      "Ġesc": 7466,
      "Ġsepar": 7467,
      "Ġkontant": 7468,
      "Ġnight": 7469,
      "Ġoy": 7470,
      "Ġmaag": 7471,
      "Dankie": 7472,
      "Ġopsigte": 7473,
      "Ġstyg": 7474,
      "Ġgeken": 7475,
      "aarde": 7476,
      "Ġverblyf": 7477,
      "ski": 7478,
      "Ġcoach": 7479,
      "ĠDankie": 7480,
      "ĠST": 7481,
      "ĠReview": 7482,
      "Ġinn": 7483,
      "Ġaph": 7484,
      "board": 7485,
      "winkel": 7486,
      "Ġakk": 7487,
      "Ġevents": 7488,
      "Ġfamilies": 7489,
      "ĠLake": 7490,
      "Ġsignificant": 7491,
      "ĠVind": 7492,
      "ĠâĨ": 7493,
      "edien": 7494,
      "ĠSin": 7495,
      "bek": 7496,
      "ĠOSC": 7497,
      "ibe": 7498,
      "Ġplus": 7499,
      "annel": 7500,
      "Ġonge": 7501,
      "skom": 7502,
      "erf": 7503,
      "ĠBotha": 7504,
      "behout": 7505,
      "Ġbeweging": 7506,
      "upa": 7507,
      "Ġvergadering": 7508,
      "!!!!": 7509,
      "ĠSar": 7510,
      "mann": 7511,
      "Ġelected": 7512,
      "apie": 7513,
      "Ġbekommerd": 7514,
      "ĠJerusalem": 7515,
      "Ġbam": 7516,
      "Ġpredik": 7517,
      "ĠPak": 7518,
      "Ġobs": 7519,
      "Ġcome": 7520,
      "Ġgirls": 7521,
      "2016": 7522,
      "straat": 7523,
      "ĠRef": 7524,
      "Ġkool": 7525,
      "gebied": 7526,
      "Ġlesers": 7527,
      "saamheid": 7528,
      "ĠVirgin": 7529,
      "ĠIndiÃ«": 7530,
      "ĠBru": 7531,
      "enter": 7532,
      "erve": 7533,
      "Ok": 7534,
      "Ġstort": 7535,
      "Ġalthough": 7536,
      "Ġbevolking": 7537,
      "ension": 7538,
      "Ġgered": 7539,
      "Ġrou": 7540,
      "Ġstay": 7541,
      "Ġena": 7542,
      "Ġfav": 7543,
      "92": 7544,
      "Ġartikels": 7545,
      "2017": 7546,
      "Ġteams": 7547,
      "itect": 7548,
      "Ġstadig": 7549,
      "Ġeziningi": 7550,
      "ĠVoeg": 7551,
      "Ġton": 7552,
      "Ġkufuneka": 7553,
      "ĠCentral": 7554,
      "Ġperformance": 7555,
      "ĠTen": 7556,
      "Ġclose": 7557,
      "ayithi": 7558,
      "rof": 7559,
      "yx": 7560,
      "ĠRand": 7561,
      "Ġabaz": 7562,
      "Ġdans": 7563,
      "Ġbelegging": 7564,
      "unch": 7565,
      "Ġeffek": 7566,
      "undel": 7567,
      "elekileyo": 7568,
      "ĠTour": 7569,
      "head": 7570,
      "gedra": 7571,
      "eto": 7572,
      "ĠOSCAR": 7573,
      "Ġmom": 7574,
      "Ġtamat": 7575,
      "ĠPiet": 7576,
      "Ġmengsel": 7577,
      "ĠGame": 7578,
      "anethi": 7579,
      "incip": 7580,
      "erson": 7581,
      "eskryf": 7582,
      "Ġveilige": 7583,
      "egan": 7584,
      "ĠWed": 7585,
      "dress": 7586,
      "Ġquest": 7587,
      "Ġteenwoordigheid": 7588,
      "Ġkwakhe": 7589,
      "ĠFour": 7590,
      "ĠNgok": 7591,
      "ĠMaatsoekwebwerf": 7592,
      "Ġakadem": 7593,
      "ancial": 7594,
      "halwe": 7595,
      "ager": 7596,
      "coin": 7597,
      "Ġarbe": 7598,
      "aled": 7599,
      "ĠWel": 7600,
      "ãģ": 7601,
      "Â·": 7602,
      "ois": 7603,
      "Ġabe": 7604,
      "Ġversamel": 7605,
      "Ġspesifiek": 7606,
      "Ã§": 7607,
      "Ġkomplek": 7608,
      "ĠKrug": 7609,
      "ufanele": 7610,
      "Ġvermoor": 7611,
      "pecial": 7612,
      "hel": 7613,
      "Ġbaka": 7614,
      "Ġcourt": 7615,
      "ishi": 7616,
      "Ġnar": 7617,
      "Ġgehelp": 7618,
      "ĠAfsprake": 7619,
      "beg": 7620,
      "onzo": 7621,
      "useer": 7622,
      "ĠDown": 7623,
      "ĠDuitsland": 7624,
      "heers": 7625,
      "lymp": 7626,
      "Ġbehoefte": 7627,
      "ĠTechn": 7628,
      "ĠWomen": 7629,
      "adian": 7630,
      "Ġcontract": 7631,
      "Ġheav": 7632,
      "Ġdaughter": 7633,
      "unge": 7634,
      "hlo": 7635,
      "ĠRus": 7636,
      "ĠPussy": 7637,
      "UT": 7638,
      "Ġmoney": 7639,
      "ĠEgip": 7640,
      "mes": 7641,
      "put": 7642,
      "alela": 7643,
      "Ġyem": 7644,
      "ĠKingdom": 7645,
      "Ġjammer": 7646,
      "ĠTrump": 7647,
      "apper": 7648,
      "ĠOver": 7649,
      "93": 7650,
      "izen": 7651,
      "fundo": 7652,
      "Ġglas": 7653,
      "uno": 7654,
      "Ġjeug": 7655,
      "Ġtransform": 7656,
      "ĠuS": 7657,
      "ĠChic": 7658,
      "Ġsekuriteit": 7659,
      "icles": 7660,
      "Ġskad": 7661,
      "aphosa": 7662,
      "Ġfeela": 7663,
      "Ġvertoon": 7664,
      "rast": 7665,
      "Ġmarkte": 7666,
      "Ġtravel": 7667,
      "ĠAmaz": 7668,
      "alung": 7669,
      "Ġpersonal": 7670,
      "ĠAcademy": 7671,
      "Ġonderneming": 7672,
      "inent": 7673,
      "Ġdate": 7674,
      "stowwe": 7675,
      "Ġskuldig": 7676,
      "Ġhegtenis": 7677,
      "Ġvloe": 7678,
      "ription": 7679,
      "drukking": 7680,
      "Ġphambili": 7681,
      "Ġhotel": 7682,
      "ĠBol": 7683,
      "Ġvs": 7684,
      "Ġterugkeer": 7685,
      "Ġgrow": 7686,
      "Ġkoninkryk": 7687,
      "Ġcondu": 7688,
      "Ġfeder": 7689,
      "ĠLew": 7690,
      "Ġpossible": 7691,
      "okken": 7692,
      "resh": 7693,
      "Ġprestasie": 7694,
      "arter": 7695,
      "ĠFort": 7696,
      "vleis": 7697,
      "ĠKen": 7698,
      "aag": 7699,
      "well": 7700,
      "Ġvoorval": 7701,
      "Ġukug": 7702,
      "Ġmes": 7703,
      "Ġharte": 7704,
      "ĠKry": 7705,
      "meer": 7706,
      "Ġabath": 7707,
      "Ġtoo": 7708,
      "ĠCharl": 7709,
      "Ġwood": 7710,
      "Ġopget": 7711,
      "Ġcop": 7712,
      "ĠJak": 7713,
      "Ġ02": 7714,
      "Ġverantwoordelikheid": 7715,
      "ĠDo": 7716,
      "ĠMas": 7717,
      "Ġhoogste": 7718,
      "Ġeffect": 7719,
      "ĠRug": 7720,
      "Sc": 7721,
      "Ġcurrent": 7722,
      "Ġokuy": 7723,
      "Ġkumele": 7724,
      "Ġ!": 7725,
      "ulling": 7726,
      "Uit": 7727,
      "Ġamandla": 7728,
      "ĠBill": 7729,
      "ĠBang": 7730,
      "hoe": 7731,
      "ĠClass": 7732,
      "ĠEducation": 7733,
      "aj": 7734,
      "Ġnews": 7735,
      "Ġngab": 7736,
      "soos": 7737,
      "ario": 7738,
      "bood": 7739,
      "Ġvader": 7740,
      "stry": 7741,
      "ruim": 7742,
      "ĠMov": 7743,
      "Ġmiljard": 7744,
      "mis": 7745,
      "change": 7746,
      "elayo": 7747,
      "Ġ04": 7748,
      "Ġafstand": 7749,
      "gereg": 7750,
      "kunde": 7751,
      "ĠTor": 7752,
      "etho": 7753,
      "komende": 7754,
      "oond": 7755,
      "Ġsuksesvolle": 7756,
      "91": 7757,
      "Ġukuz": 7758,
      "ervorm": 7759,
      "ĠKun": 7760,
      "ĠMale": 7761,
      "ÃŃt": 7762,
      "Ġngaphambi": 7763,
      "uzi": 7764,
      "Ġgewoon": 7765,
      "ĠStand": 7766,
      "isering": 7767,
      "Ġwom": 7768,
      "Ġfollowed": 7769,
      "prof": 7770,
      "Ġplast": 7771,
      "ĠWay": 7772,
      "isisa": 7773,
      "ĠOther": 7774,
      "ĠEnkellopende": 7775,
      "gewings": 7776,
      "ĠCarol": 7777,
      "bok": 7778,
      "nament": 7779,
      "Ġcountries": 7780,
      "AAAA": 7781,
      "ello": 7782,
      "Ġezinye": 7783,
      "estelling": 7784,
      "Ġ()": 7785,
      "Ġperfekte": 7786,
      "ĠNat": 7787,
      "ostig": 7788,
      "Ġexec": 7789,
      "Ġkommunikasie": 7790,
      "sec": 7791,
      "Ġtronk": 7792,
      "Ġkleure": 7793,
      "ched": 7794,
      "rekening": 7795,
      "angesien": 7796,
      "ĠTexas": 7797,
      "Ġvoorspel": 7798,
      "ĠFrankryk": 7799,
      "Ġwaardeer": 7800,
      "Ġbydrae": 7801,
      "Ġever": 7802,
      "hlaw": 7803,
      "endheid": 7804,
      "ĠCast": 7805,
      "Ġleading": 7806,
      "Ġys": 7807,
      "Ġgetuig": 7808,
      "Ġuitvoerende": 7809,
      "Ġvyand": 7810,
      "Ġmnr": 7811,
      "Ġyang": 7812,
      "ria": 7813,
      "Forum": 7814,
      "Ġlakhe": 7815,
      "Ġleier": 7816,
      "enzo": 7817,
      "entes": 7818,
      "Ġdeter": 7819,
      "ĠProdu": 7820,
      "hlizi": 7821,
      "Ġingew": 7822,
      "owns": 7823,
      "Ġbehels": 7824,
      "rial": 7825,
      "Ġwaaroor": 7826,
      "ĠJew": 7827,
      "Ġpapier": 7828,
      "ikus": 7829,
      "Ġsimb": 7830,
      "Ġmang": 7831,
      "ĠEp": 7832,
      "urele": 7833,
      "ĠBoer": 7834,
      "ĠTog": 7835,
      "oeier": 7836,
      "hia": 7837,
      "Ġkusukela": 7838,
      "Ġverf": 7839,
      "ĠHeb": 7840,
      "ameling": 7841,
      "ĠSexy": 7842,
      "Ġverwerp": 7843,
      "Ġleser": 7844,
      "Ġrent": 7845,
      "Ġdiff": 7846,
      "Ġonderhoud": 7847,
      "Ġmaint": 7848,
      "Gro": 7849,
      "gegaan": 7850,
      "68": 7851,
      "yb": 7852,
      "ĠLong": 7853,
      "ĠVroue": 7854,
      "ĠKlets": 7855,
      "ĠFa": 7856,
      "Ä±": 7857,
      "Ġgrafiek": 7858,
      "erskool": 7859,
      "Ġtab": 7860,
      "ebo": 7861,
      "Ġmoeder": 7862,
      "Ġgroups": 7863,
      "iana": 7864,
      "vere": 7865,
      "Ġ1992": 7866,
      "ĠDou": 7867,
      "2018": 7868,
      "Ġrights": 7869,
      "Ġ03": 7870,
      "Maak": 7871,
      "ĠSit": 7872,
      "Ġjongste": 7873,
      "ĠCro": 7874,
      "Bl": 7875,
      "owers": 7876,
      "Ġnjani": 7877,
      "okot": 7878,
      "ishini": 7879,
      "ĠHow": 7880,
      "Ġkoers": 7881,
      "Ġsound": 7882,
      "Ġdesigned": 7883,
      "seks": 7884,
      "bury": 7885,
      "Ġdring": 7886,
      "Ġspot": 7887,
      "ĠIslam": 7888,
      "HO": 7889,
      "Ġtransl": 7890,
      "dery": 7891,
      "ĠNamib": 7892,
      "ĠBesoek": 7893,
      "owe": 7894,
      "Ġlif": 7895,
      "atte": 7896,
      "Ġgerief": 7897,
      "doende": 7898,
      "Ġarms": 7899,
      "ienis": 7900,
      "Ġconstruction": 7901,
      "Dr": 7902,
      "Ġnetwork": 7903,
      "ĠTom": 7904,
      "odge": 7905,
      "mate": 7906,
      "ĠLokhu": 7907,
      "Ġlargest": 7908,
      "Ġtreat": 7909,
      "Ġomst": 7910,
      "ĠHoÃ«r": 7911,
      "Ġlinks": 7912,
      "yz": 7913,
      "Ġcompleted": 7914,
      "Ġaud": 7915,
      "ims": 7916,
      "Ġtoekomstige": 7917,
      "Ġisikh": 7918,
      "odana": 7919,
      "icks": 7920,
      "ĠAnders": 7921,
      "Ġfeatures": 7922,
      "Ġoptree": 7923,
      "Ġbeskuldig": 7924,
      "Ġngeke": 7925,
      "ĠLab": 7926,
      "ĠstrategieÃ«": 7927,
      "Ġofficial": 7928,
      "Ġsteun": 7929,
      "Ġgevestig": 7930,
      "Ġcast": 7931,
      "Ġvang": 7932,
      "Ġsimptome": 7933,
      "Ġplayers": 7934,
      "Ġtitel": 7935,
      "eteld": 7936,
      "Ġskrywers": 7937,
      "Ġwal": 7938,
      "Ġgesny": 7939,
      "oende": 7940,
      "iering": 7941,
      "Ġbeurt": 7942,
      "Ġvaardighede": 7943,
      "po": 7944,
      "Ġanale": 7945,
      "Ġdiv": 7946,
      "Ġkokuba": 7947,
      "maal": 7948,
      "ĠWerk": 7949,
      "duced": 7950,
      "andelayo": 7951,
      "ĠgelÃª": 7952,
      "Ġleague": 7953,
      "Ġleiding": 7954,
      "Ġassoci": 7955,
      "Ġukw": 7956,
      "hart": 7957,
      "Ġbob": 7958,
      "Ġdun": 7959,
      "Ġleaders": 7960,
      "Ġcomment": 7961,
      "Ġlyrics": 7962,
      "onse": 7963,
      "ĠCong": 7964,
      "Ġhek": 7965,
      "akaz": 7966,
      "iem": 7967,
      "Ġphezu": 7968,
      "allery": 7969,
      "ĠRom": 7970,
      "amin": 7971,
      "foto": 7972,
      "steek": 7973,
      "Ġcross": 7974,
      "Ã«rs": 7975,
      "rigting": 7976,
      "Ġ400": 7977,
      "iams": 7978,
      "Ġdira": 7979,
      "ubi": 7980,
      "obile": 7981,
      "Ġbag": 7982,
      "idl": 7983,
      "atsa": 7984,
      "Bhayibh": 7985,
      "Ġschools": 7986,
      "blr": 7987,
      "Ġlittle": 7988,
      "Ġamateur": 7989,
      "Ġnoodsaaklik": 7990,
      "Ġaangep": 7991,
      "ĠOld": 7992,
      "onst": 7993,
      "Ġvlakke": 7994,
      "Ġee": 7995,
      "Ġeis": 7996,
      "Ġtoegerus": 7997,
      "ĠVerder": 7998,
      "erig": 7999,
      "Ġtref": 8000,
      "feer": 8001,
      "Ġmel": 8002,
      "Ġhong": 8003,
      "yw": 8004,
      "Ġnoodwendig": 8005,
      "79": 8006,
      "Ġkund": 8007,
      "weÃ«": 8008,
      "atre": 8009,
      "Ġsoortgelyke": 8010,
      "ĠLuc": 8011,
      "Ġokun": 8012,
      "vest": 8013,
      "Ġvooruit": 8014,
      "gewoon": 8015,
      "utch": 8016,
      "ĠHong": 8017,
      "Ġburg": 8018,
      "Ġopbreng": 8019,
      "reme": 8020,
      "Ġapplic": 8021,
      "idelik": 8022,
      "ĠEerste": 8023,
      "Ġtekens": 8024,
      "Ġroman": 8025,
      "etseng": 8026,
      "Ġinstrument": 8027,
      "ĠView": 8028,
      "Ġverstand": 8029,
      "Ġhip": 8030,
      "ĠRepubl": 8031,
      "Ġwid": 8032,
      "Ġvergelyking": 8033,
      "riForum": 8034,
      "Ġwoordvoerder": 8035,
      "icated": 8036,
      "Ġruil": 8037,
      "Ġkoppie": 8038,
      "Ġrestaurant": 8039,
      "Ġbeha": 8040,
      "thing": 8041,
      "Ġbitter": 8042,
      "ifik": 8043,
      "ĠCamb": 8044,
      "car": 8045,
      "Ġblik": 8046,
      "Ġjag": 8047,
      "Ġaart": 8048,
      "qinis": 8049,
      "Ġenkel": 8050,
      "ikazi": 8051,
      "Ġvestig": 8052,
      "itamien": 8053,
      "Ġduisende": 8054,
      "Ġspace": 8055,
      "ĠLy": 8056,
      "ĠNgakho": 8057,
      "Ġonlangse": 8058,
      "ĠPart": 8059,
      "asons": 8060,
      "Ġvolume": 8061,
      "gehou": 8062,
      "Ġearl": 8063,
      "Ġfinale": 8064,
      "ĠForm": 8065,
      "ĠMoet": 8066,
      "Geb": 8067,
      "Ġcare": 8068,
      "Ġlakho": 8069,
      "Ġsteel": 8070,
      "CC": 8071,
      "Ġukuv": 8072,
      "Ġrange": 8073,
      "ĠAL": 8074,
      "pes": 8075,
      "ĠOlymp": 8076,
      "ĠWall": 8077,
      "Ġzakho": 8078,
      "Ġgrens": 8079,
      "Ġabo": 8080,
      "ibi": 8081,
      "Ġthroughout": 8082,
      "ĠArea": 8083,
      "akters": 8084,
      "ekela": 8085,
      "ĠBloemfontein": 8086,
      "lemo": 8087,
      "Ġmisl": 8088,
      "Ġcurrently": 8089,
      "Ġfaktore": 8090,
      "ĠBrand": 8091,
      "oets": 8092,
      "athan": 8093,
      "ĠPieter": 8094,
      "Ġopgeneem": 8095,
      "qeq": 8096,
      "Ġdaagliks": 8097,
      "Ġoorleef": 8098,
      "Ġadded": 8099,
      "spreek": 8100,
      "ĠJesu": 8101,
      "kans": 8102,
      "Ġrass": 8103,
      "moontlik": 8104,
      "Ġstage": 8105,
      "Ġbenadering": 8106,
      "Ġot": 8107,
      "Ġhardloop": 8108,
      "Ġintellig": 8109,
      "Ġinvolved": 8110,
      "onders": 8111,
      "Ġkep": 8112,
      "Ġopstand": 8113,
      "Ġgemaklik": 8114,
      "Ġadj": 8115,
      "Ġachie": 8116,
      "anayo": 8117,
      "Ġtsela": 8118,
      "Ġperformed": 8119,
      "ĠNic": 8120,
      "ĠTimes": 8121,
      "Ġendaweni": 8122,
      "oles": 8123,
      "Ġbv": 8124,
      "chan": 8125,
      "Ġeksp": 8126,
      "Ġkuth": 8127,
      "omatiese": 8128,
      "Ġuv": 8129,
      "________": 8130,
      "Ġselfoon": 8131,
      "Ġlabo": 8132,
      "ĠWik": 8133,
      "ĠCorn": 8134,
      "Ġprovide": 8135,
      "kamers": 8136,
      "Ġveranderinge": 8137,
      "Ġtlh": 8138,
      "ĠJong": 8139,
      "Ġbepaalde": 8140,
      "essis": 8141,
      "gewers": 8142,
      "Ġburger": 8143,
      "icelo": 8144,
      "https": 8145,
      "iqin": 8146,
      "Ġherinner": 8147,
      "Ġ1993": 8148,
      "Ġbeklem": 8149,
      "Ġcasino": 8150,
      "La": 8151,
      "ĠAndroid": 8152,
      "esteer": 8153,
      "ĠKu": 8154,
      "ĠPetrus": 8155,
      "Ġsaw": 8156,
      "Ġinspir": 8157,
      "BS": 8158,
      "ĠJon": 8159,
      "ĠEngeland": 8160,
      "Ġeendag": 8161,
      "naam": 8162,
      "ĠPan": 8163,
      "Ġregard": 8164,
      "Ġgedig": 8165,
      "iful": 8166,
      "Ġviol": 8167,
      "lay": 8168,
      "hets": 8169,
      "ĠUr": 8170,
      "isele": 8171,
      "ĠFamil": 8172,
      "Ġkorrup": 8173,
      "vernor": 8174,
      "Ġmedis": 8175,
      "boeke": 8176,
      "Ġgewaar": 8177,
      "ĠAnton": 8178,
      "witte": 8179,
      "Ġmaks": 8180,
      "rel": 8181,
      "waai": 8182,
      "engisa": 8183,
      "ĠDef": 8184,
      "ti": 8185,
      "erself": 8186,
      "Ġopenbaar": 8187,
      "Ġincludes": 8188,
      "Ġexc": 8189,
      "eringe": 8190,
      "Ġbelow": 8191,
      "Ġbehoorlik": 8192,
      "Ġbewaar": 8193,
      "Ġseven": 8194,
      "ĠMah": 8195,
      "FA": 8196,
      "Ġrank": 8197,
      "endawo": 8198,
      "Ġlen": 8199,
      "Ġsays": 8200,
      "rich": 8201,
      "Ġanim": 8202,
      "elinge": 8203,
      "roy": 8204,
      "ĠAP": 8205,
      "tain": 8206,
      "Ġkursus": 8207,
      "Ġmeerderheid": 8208,
      "65": 8209,
      "ĠRepublic": 8210,
      "ĠRadio": 8211,
      "Ġaandelemark": 8212,
      "Ġjud": 8213,
      "omin": 8214,
      "ĠSaint": 8215,
      "AND": 8216,
      "ĠÃ³f": 8217,
      "Ġinteressante": 8218,
      "meng": 8219,
      "Ġearn": 8220,
      "ocal": 8221,
      "Ġrespect": 8222,
      "derdaad": 8223,
      "ĠBoo": 8224,
      "vey": 8225,
      "ĠBak": 8226,
      "Ġmiddag": 8227,
      "Ġalk": 8228,
      "Ġconsist": 8229,
      "Ġwor": 8230,
      "ournal": 8231,
      "Ġ]": 8232,
      "Ġnommer": 8233,
      "ĠCathol": 8234,
      "ĠOper": 8235,
      "Ġleast": 8236,
      "Ġvoorsp": 8237,
      "eda": 8238,
      "ombo": 8239,
      "rain": 8240,
      "ĠdroÃ«": 8241,
      "Ġfoute": 8242,
      "Ġverkrag": 8243,
      "Ġmix": 8244,
      "Ġrobot": 8245,
      "Ġheelwat": 8246,
      "hweba": 8247,
      "geld": 8248,
      "Ġouma": 8249,
      "Ġdubbel": 8250,
      "Ġprovided": 8251,
      "ĠPlessis": 8252,
      "Ġwebsite": 8253,
      "iaan": 8254,
      "ĠCommission": 8255,
      "Ġklimaat": 8256,
      "Ġsir": 8257,
      "ĠuJehova": 8258,
      "ĠGoeie": 8259,
      "Ġafge": 8260,
      "gebou": 8261,
      "ĠAlthough": 8262,
      "eres": 8263,
      "gids": 8264,
      "Ġpie": 8265,
      "Ġheen": 8266,
      "wepheshe": 8267,
      "Ġonwet": 8268,
      "Ġgesondheids": 8269,
      "Ġtu": 8270,
      "skakel": 8271,
      "rought": 8272,
      "Ġwaardes": 8273,
      "Ġnuutste": 8274,
      "ĠSteph": 8275,
      "Ġpil": 8276,
      "Ġforces": 8277,
      "ĠDub": 8278,
      "Ġverloop": 8279,
      "imlag": 8280,
      "ĠSom": 8281,
      "uld": 8282,
      "Ġcal": 8283,
      "Ġoom": 8284,
      "akhona": 8285,
      "ĠService": 8286,
      "yq": 8287,
      "IA": 8288,
      "Ġasb": 8289,
      "Ġanc": 8290,
      "Jul": 8291,
      "ĠJoseph": 8292,
      "hluka": 8293,
      "Ġ65": 8294,
      "Ġgodsdiens": 8295,
      "Ġopin": 8296,
      "Ġaanvanklik": 8297,
      "Ġvinniger": 8298,
      "Ġbesluite": 8299,
      "Ġkeep": 8300,
      "Ġsui": 8301,
      "idariteit": 8302,
      "Ġbrother": 8303,
      "Ġswanger": 8304,
      "dertyd": 8305,
      "Ġnaye": 8306,
      "ĠAngeles": 8307,
      "Ġenkulu": 8308,
      "Ġbabe": 8309,
      "NA": 8310,
      "Ġskaars": 8311,
      ".'": 8312,
      "Ġonttrek": 8313,
      "ĠgeÃ¯n": 8314,
      "Ġatmos": 8315,
      "ĠFuck": 8316,
      "Ġroof": 8317,
      "itis": 8318,
      "ĠOmdat": 8319,
      "Ġskyn": 8320,
      "Ġloopbaan": 8321,
      "74": 8322,
      "ĠAtlant": 8323,
      "oede": 8324,
      "Ġshows": 8325,
      "Ġhae": 8326,
      "ĠItalian": 8327,
      "Ġsubject": 8328,
      "izing": 8329,
      "Ġvenn": 8330,
      "Ġupon": 8331,
      "Ġsection": 8332,
      "Ġumth": 8333,
      "inse": 8334,
      "Ġukuya": 8335,
      "Ġbetter": 8336,
      "ĠHart": 8337,
      "Ġillust": 8338,
      "Ġtrap": 8339,
      "Ġhit": 8340,
      "Ġnetjies": 8341,
      "Ġperfek": 8342,
      "Nd": 8343,
      "bied": 8344,
      "arden": 8345,
      "Ġmeas": 8346,
      "ĠDaniel": 8347,
      "Ġntse": 8348,
      "ĠBeach": 8349,
      "Ġbestuurder": 8350,
      "Ġamakh": 8351,
      "Ġpartye": 8352,
      "amandla": 8353,
      "derst": 8354,
      "ĠPop": 8355,
      "Ġvreemde": 8356,
      "nu": 8357,
      "Ġlob": 8358,
      "hips": 8359,
      "Ġremained": 8360,
      "stukke": 8361,
      "arian": 8362,
      "alleer": 8363,
      "Ġparlement": 8364,
      "Ġbekostig": 8365,
      "Ġaktiewe": 8366,
      "Ġsoc": 8367,
      "Ġwase": 8368,
      "Ġseksuele": 8369,
      "clud": 8370,
      "Ġmu": 8371,
      "word": 8372,
      "ĠRos": 8373,
      "zu": 8374,
      "72": 8375,
      "Ġcreat": 8376,
      "kamp": 8377,
      "atl": 8378,
      "Ġoriginally": 8379,
      "anne": 8380,
      "ĠWeek": 8381,
      "ĠLesb": 8382,
      "okw": 8383,
      "abh": 8384,
      "indig": 8385,
      "Ġabove": 8386,
      "face": 8387,
      "Ġbestaande": 8388,
      "Ġopwind": 8389,
      "sit": 8390,
      "Ġgive": 8391,
      "Ġopges": 8392,
      "Ġongelukkig": 8393,
      "Ġej": 8394,
      "Ġberei": 8395,
      "adlali": 8396,
      "Ġbome": 8397,
      "Ġadvert": 8398,
      "Ġverlore": 8399,
      "ĠPrem": 8400,
      "rang": 8401,
      "Ġusually": 8402,
      "Ġregverdig": 8403,
      "Ġmethod": 8404,
      "Ġbeng": 8405,
      "Ġfinished": 8406,
      "info": 8407,
      "Ġ1991": 8408,
      "Ġbelangstelling": 8409,
      "Ġlesi": 8410,
      "Ġwinkels": 8411,
      "Ġbeleggers": 8412,
      "umk": 8413,
      "Ġhaat": 8414,
      "ĠVersk": 8415,
      "stitution": 8416,
      "ĠAdam": 8417,
      "ĠMax": 8418,
      "Ġkuthi": 8419,
      "ĠPublic": 8420,
      "nel": 8421,
      "matige": 8422,
      "ĠJode": 8423,
      "Ġsoku": 8424,
      "DiÃ©": 8425,
      "isse": 8426,
      "Ġstates": 8427,
      "emaak": 8428,
      "Ġntle": 8429,
      "Ġgeste": 8430,
      "Ġbaf": 8431,
      "ĠJohns": 8432,
      "ml": 8433,
      "hawe": 8434,
      "iva": 8435,
      "HA": 8436,
      "Kan": 8437,
      "igan": 8438,
      "ĠProv": 8439,
      "Ġstappe": 8440,
      "Ġgestig": 8441,
      "Ġaction": 8442,
      "ibili": 8443,
      "ĠBob": 8444,
      "iode": 8445,
      "ĠSince": 8446,
      "ĠAmateur": 8447,
      "Â«": 8448,
      "ĠSha": 8449,
      "ifund": 8450,
      "core": 8451,
      "Ġskuif": 8452,
      "Ġdrama": 8453,
      "enthede": 8454,
      "Ġbesprek": 8455,
      "lote": 8456,
      "Ġinvestig": 8457,
      "ĠAbraham": 8458,
      "ĠValley": 8459,
      "Ġera": 8460,
      "Ġgat": 8461,
      "Ġgeveg": 8462,
      "ĠDawid": 8463,
      "Ġaff": 8464,
      "ĠAth": 8465,
      "Ġslaag": 8466,
      "Ġresident": 8467,
      "oreer": 8468,
      "Ġdivers": 8469,
      "Ġgoal": 8470,
      "Ġtransfer": 8471,
      "ĠZimbabwe": 8472,
      "Ġresepte": 8473,
      "Ġverdeel": 8474,
      "aad": 8475,
      "Ġeuro": 8476,
      "ĠNk": 8477,
      "Ġvriendelik": 8478,
      "Ġsoft": 8479,
      "ĠXxx": 8480,
      "gewer": 8481,
      "Ġkoel": 8482,
      "Ġgeel": 8483,
      "ĠGener": 8484,
      "Ap": 8485,
      "Ġprofessor": 8486,
      "Ġmol": 8487,
      "mbad": 8488,
      "Cl": 8489,
      "apens": 8490,
      "Ġmand": 8491,
      "ĠFuthi": 8492,
      "Press": 8493,
      "skrifte": 8494,
      "Ġnovel": 8495,
      "Ġtits": 8496,
      "Ġkuma": 8497,
      "ben": 8498,
      "ĠBul": 8499,
      "bad": 8500,
      "ication": 8501,
      "bond": 8502,
      "Ġeq": 8503,
      "onyaka": 8504,
      "iber": 8505,
      "hemba": 8506,
      "ĠLive": 8507,
      "Ġnatural": 8508,
      "asem": 8509,
      "ircraft": 8510,
      "itief": 8511,
      "urend": 8512,
      "Ã¢": 8513,
      "ibonelo": 8514,
      "atives": 8515,
      "cer": 8516,
      "enke": 8517,
      "Ġoms": 8518,
      "ĠTurk": 8519,
      "Ġstated": 8520,
      "telike": 8521,
      "Ġnama": 8522,
      "ION": 8523,
      "Ġgot": 8524,
      "erselfdertyd": 8525,
      "indo": 8526,
      "Ġ1950": 8527,
      "Ġlus": 8528,
      "Ġcentral": 8529,
      "offel": 8530,
      "attoo": 8531,
      "agse": 8532,
      "ĠParis": 8533,
      "Ġverkiesing": 8534,
      "entoe": 8535,
      "ĠLeer": 8536,
      "Ġgold": 8537,
      "lyne": 8538,
      "mail": 8539,
      "Ġmount": 8540,
      "ĠSem": 8541,
      "71": 8542,
      "Ġewe": 8543,
      "Ġvoorbeelde": 8544,
      "Ġeight": 8545,
      "RA": 8546,
      "hepha": 8547,
      "Ġcampaign": 8548,
      "Ġklank": 8549,
      "Ġwol": 8550,
      "Ġapho": 8551,
      "Ġwortels": 8552,
      "Ġgenees": 8553,
      "Ġidentifiseer": 8554,
      "Ġkwalokho": 8555,
      "ĠMp": 8556,
      "hest": 8557,
      "benewens": 8558,
      "Ġmaklike": 8559,
      "iring": 8560,
      "Ġuitgebre": 8561,
      "Ġbedank": 8562,
      "Ġlin": 8563,
      "iences": 8564,
      "Ġideaal": 8565,
      "hor": 8566,
      "Ġyona": 8567,
      "ĠNee": 8568,
      "ĠLeon": 8569,
      "tse": 8570,
      "Ġkak": 8571,
      "Ġsleep": 8572,
      "Ġtotaal": 8573,
      "Ġeither": 8574,
      "Ġdrank": 8575,
      "Ġarticle": 8576,
      "ran": 8577,
      "Ġgoing": 8578,
      "oernal": 8579,
      "ĠEsel": 8580,
      "Ġcred": 8581,
      "ĠCanadian": 8582,
      "Ġvand": 8583,
      "Ãº": 8584,
      "Ġidentiteit": 8585,
      "Christ": 8586,
      "hesha": 8587,
      "Ġgevorm": 8588,
      "edeel": 8589,
      "ĠWilliams": 8590,
      "anies": 8591,
      "ilities": 8592,
      "This": 8593,
      "Ġorde": 8594,
      "Ġmanje": 8595,
      "gewe": 8596,
      "lot": 8597,
      "Ġdegree": 8598,
      "ridge": 8599,
      "ektor": 8600,
      "Ġemb": 8601,
      "Ġdecided": 8602,
      "gewende": 8603,
      "yan": 8604,
      "alanga": 8605,
      "brek": 8606,
      "Ġ1989": 8607,
      "Ġafgele": 8608,
      "Ġthink": 8609,
      "Ġufuna": 8610,
      "gener": 8611,
      "Ġbeginsels": 8612,
      "Ġkusuka": 8613,
      "Ġbereken": 8614,
      "inated": 8615,
      "Ġeventually": 8616,
      "theid": 8617,
      "Ġnabo": 8618,
      "Iz": 8619,
      "Ġcommer": 8620,
      "ĠStar": 8621,
      "Ġmoeg": 8622,
      "Ġsurv": 8623,
      "dheid": 8624,
      "Ġler": 8625,
      "64": 8626,
      "Ġmach": 8627,
      "api": 8628,
      "Ġgese": 8629,
      "73": 8630,
      "ĠEmp": 8631,
      "ĠseÃ«n": 8632,
      "Ġfondse": 8633,
      "ĠHotel": 8634,
      "ĠMost": 8635,
      "lewe": 8636,
      "ĠMore": 8637,
      "ĠAnale": 8638,
      "pecially": 8639,
      "ĠSAR": 8640,
      "iders": 8641,
      "Ġdemok": 8642,
      "based": 8643,
      "Ġverse": 8644,
      "Ġdeesdae": 8645,
      "Ġenye": 8646,
      "Ġvrye": 8647,
      "Ġrespek": 8648,
      "Ġondernemings": 8649,
      "ĠLast": 8650,
      "Ġwerknemers": 8651,
      "Ġkuyo": 8652,
      "Ġwez": 8653,
      "Ġhieronder": 8654,
      "Ġverle": 8655,
      "Ġphambi": 8656,
      "Ġfunksie": 8657,
      "Ġcollege": 8658,
      "Ġdirected": 8659,
      "VD": 8660,
      "lit": 8661,
      "Ġartist": 8662,
      "Ġmb": 8663,
      "ĠFound": 8664,
      "Ġham": 8665,
      "ihle": 8666,
      "Ġgesag": 8667,
      "Ġbathroom": 8668,
      "Ġgereedskap": 8669,
      "Ġkilled": 8670,
      "Ġskilder": 8671,
      "Ġaandeel": 8672,
      "Ġopmerk": 8673,
      "Ġaspekte": 8674,
      "Ġvoorberei": 8675,
      "Ġamad": 8676,
      "Ġrak": 8677,
      "Ġpassie": 8678,
      "Ġsites": 8679,
      "ceda": 8680,
      "bat": 8681,
      "eksel": 8682,
      "Ġvoorstel": 8683,
      "Ġbeklemtoon": 8684,
      "onda": 8685,
      "Ã¡n": 8686,
      "ĠKung": 8687,
      "Ġaanbid": 8688,
      "Ġresults": 8689,
      "esearch": 8690,
      "Ġwye": 8691,
      "aphandle": 8692,
      "Ġmunicip": 8693,
      "Ã¸": 8694,
      "ĠBurger": 8695,
      "Ġbone": 8696,
      "Ġindustry": 8697,
      "host": 8698,
      "ĠSund": 8699,
      "Ġophou": 8700,
      "ĠDig": 8701,
      "aria": 8702,
      "ĠTwee": 8703,
      "Ġafg": 8704,
      "fort": 8705,
      "Ġfuture": 8706,
      "Ġnjenge": 8707,
      "Ġuj": 8708,
      "phakathi": 8709,
      "Ġbreak": 8710,
      "beamp": 8711,
      "ĠChicago": 8712,
      "Ġrook": 8713,
      "wÃªreld": 8714,
      "Ġimmers": 8715,
      "Ġeindig": 8716,
      "ĠIts": 8717,
      "Ġmur": 8718,
      "ni": 8719,
      "Ġdestyds": 8720,
      "Ġnaakte": 8721,
      "venue": 8722,
      "ĠFrans": 8723,
      "Ġspaar": 8724,
      "bach": 8725,
      "Ġfeatured": 8726,
      "front": 8727,
      "Ġspanning": 8728,
      "icult": 8729,
      "Ġwyd": 8730,
      "ceed": 8731,
      "Ġakkur": 8732,
      "ĠkliÃ«nt": 8733,
      "Ġprovins": 8734,
      "Ġexpl": 8735,
      "iry": 8736,
      "CA": 8737,
      "Ġask": 8738,
      "isiteit": 8739,
      "ĠTha": 8740,
      "Ġgesluit": 8741,
      "weging": 8742,
      "itiewe": 8743,
      "date": 8744,
      "Ġspesial": 8745,
      "appels": 8746,
      "Ġonsself": 8747,
      "Ġbom": 8748,
      "iken": 8749,
      "Oor": 8750,
      "mit": 8751,
      "Ġbooks": 8752,
      "Ġjaarlikse": 8753,
      "Ġlewende": 8754,
      "Ġtrading": 8755,
      "ipho": 8756,
      "besk": 8757,
      "roe": 8758,
      "otiese": 8759,
      "Ġod": 8760,
      "ĠHul": 8761,
      "Ho": 8762,
      "Ġzam": 8763,
      "reep": 8764,
      "Ġminstens": 8765,
      "ĠbelÃª": 8766,
      "nap": 8767,
      "agement": 8768,
      "ĠCovid": 8769,
      "Ġexperience": 8770,
      "Ġdeal": 8771,
      "enskappe": 8772,
      "Ġfemale": 8773,
      "amma": 8774,
      "Te": 8775,
      "Ġsamp": 8776,
      "hil": 8777,
      "Ġbbw": 8778,
      "stelle": 8779,
      "Ġsubsequ": 8780,
      "andem": 8781,
      "Ġtalent": 8782,
      "ĠMess": 8783,
      "Ġreve": 8784,
      "plekke": 8785,
      "Ġactive": 8786,
      "Ġcommand": 8787,
      "Ġboard": 8788,
      "etty": 8789,
      "Ġfiets": 8790,
      "ĠTele": 8791,
      "ĠÃ©n": 8792,
      "Ġbeskerming": 8793,
      "ĠMoses": 8794,
      "ighting": 8795,
      "illem": 8796,
      "Ġooreens": 8797,
      "ket": 8798,
      "Ġbord": 8799,
      "Ġmale": 8800,
      "Ġtemperatuur": 8801,
      "ennie": 8802,
      "Ġverkeerde": 8803,
      "ĠSpanish": 8804,
      "Ġimib": 8805,
      "Ġdemo": 8806,
      "tte": 8807,
      "uwee": 8808,
      "Ġemosionele": 8809,
      "Ġonderwysers": 8810,
      "Ġvaste": 8811,
      "Ġmeans": 8812,
      "iwa": 8813,
      "ĠDrie": 8814,
      "Ġyay": 8815,
      "Ġattempt": 8816,
      "Ġmuseum": 8817,
      "Ġsaad": 8818,
      "Ġgids": 8819,
      "Ġgoedkoop": 8820,
      "Ġngisho": 8821,
      "keie": 8822,
      "Or": 8823,
      "nemer": 8824,
      "Ġibe": 8825,
      "Ġkulo": 8826,
      "ikale": 8827,
      "lok": 8828,
      "Ġals": 8829,
      "TS": 8830,
      "ĠLtd": 8831,
      "dens": 8832,
      "ĠJos": 8833,
      "autiful": 8834,
      "ĠHoof": 8835,
      "Ġcritic": 8836,
      "ĠDemocrat": 8837,
      "eders": 8838,
      "Pa": 8839,
      "fs": 8840,
      "Ġkonteks": 8841,
      "ĠSong": 8842,
      "ĠReal": 8843,
      "Ġproduct": 8844,
      "asebenzi": 8845,
      "ĠIndiese": 8846,
      "Ġjournal": 8847,
      "Ġmobiele": 8848,
      "Ġfeel": 8849,
      "isties": 8850,
      "Ġterms": 8851,
      "kei": 8852,
      "Ġesing": 8853,
      "Ġindividue": 8854,
      "Ġagent": 8855,
      "arily": 8856,
      "Ġgedigte": 8857,
      "Ġpub": 8858,
      "ĠTem": 8859,
      "zel": 8860,
      "ĠDer": 8861,
      "ĠSab": 8862,
      "Ġweeks": 8863,
      "useb": 8864,
      "moedig": 8865,
      "ĠMol": 8866,
      "anet": 8867,
      "Ġvrag": 8868,
      "Ġtrade": 8869,
      "Ġbaseb": 8870,
      "Ġbetrekking": 8871,
      "Ag": 8872,
      "Ġpraktyk": 8873,
      "Ġafdeling": 8874,
      "Ġvertaal": 8875,
      "hlangano": 8876,
      "yj": 8877,
      "ĠSecond": 8878,
      "ĠSport": 8879,
      "iselwa": 8880,
      "ĠCatholic": 8881,
      "akul": 8882,
      "ereik": 8883,
      "ollowing": 8884,
      "Ġkaas": 8885,
      "ĠCle": 8886,
      "Ġuhl": 8887,
      "inary": 8888,
      "Ġtry": 8889,
      "ĠWild": 8890,
      "Ġstudio": 8891,
      "Ġlui": 8892,
      "teit": 8893,
      "Ġï¿½": 8894,
      "now": 8895,
      "hlek": 8896,
      "ueel": 8897,
      "Ġstar": 8898,
      "Ġfeite": 8899,
      "ontwerp": 8900,
      "Ġwysig": 8901,
      "Ġwoman": 8902,
      "ĠStock": 8903,
      "Ġbehind": 8904,
      "Ġstreek": 8905,
      "Ġtema": 8906,
      "Natal": 8907,
      "Ġlezi": 8908,
      "Ġog": 8909,
      "Ġsang": 8910,
      "ĠIII": 8911,
      "ydenis": 8912,
      "Ġooreenkoms": 8913,
      "bos": 8914,
      "liggende": 8915,
      "Ġantwoorde": 8916,
      "dad": 8917,
      "Ġtype": 8918,
      "Ġzez": 8919,
      "Ġkwabo": 8920,
      "ĠBu": 8921,
      "haaf": 8922,
      "Ġgereelde": 8923,
      "ĠEU": 8924,
      "ĠHistor": 8925,
      "Ġparts": 8926,
      "Ġewige": 8927,
      "hana": 8928,
      "ĠHend": 8929,
      "Ġherk": 8930,
      "ds": 8931,
      "Ġsoon": 8932,
      "ĠGew": 8933,
      "Ġezint": 8934,
      "Ġbenef": 8935,
      "Ġbod": 8936,
      "Ġyskas": 8937,
      "ĠUb": 8938,
      "ĠBerg": 8939,
      "stellings": 8940,
      "ibl": 8941,
      "ĠJud": 8942,
      "oeding": 8943,
      "arte": 8944,
      "Ġtaking": 8945,
      "umane": 8946,
      "ziwe": 8947,
      "game": 8948,
      "Ġvirus": 8949,
      "ĠRamaphosa": 8950,
      "Ġakukho": 8951,
      "Ġaller": 8952,
      "wala": 8953,
      "Ġsterre": 8954,
      "EC": 8955,
      "pected": 8956,
      "rike": 8957,
      "ĠAkadem": 8958,
      "ĠKruger": 8959,
      "tempor": 8960,
      "Ġ..": 8961,
      "sky": 8962,
      "Ġgedra": 8963,
      "ols": 8964,
      "Ñı": 8965,
      "Ġsuid": 8966,
      "Ġgetuienis": 8967,
      "Ġcann": 8968,
      "ĠDevelop": 8969,
      "Ġrub": 8970,
      "Ġtee": 8971,
      "Ġrepa": 8972,
      "Ġsjokol": 8973,
      "Ġawarded": 8974,
      "onies": 8975,
      "more": 8976,
      "ss": 8977,
      "erye": 8978,
      "ĠKong": 8979,
      "ĠUnder": 8980,
      "Ġrivier": 8981,
      "enxa": 8982,
      "kontrak": 8983,
      "Ġglimlag": 8984,
      "Ġindividuele": 8985,
      "Ġafhank": 8986,
      "Ġboot": 8987,
      "resp": 8988,
      "Ġsports": 8989,
      "ĠAlles": 8990,
      "Ġtroeteld": 8991,
      "Ġhao": 8992,
      "Ġseg": 8993,
      "Ġcapital": 8994,
      "Ġdistrib": 8995,
      "ception": 8996,
      "Ġcry": 8997,
      "ĠProte": 8998,
      "Ġongelooflike": 8999,
      "isters": 9000,
      "Ġduidelike": 9001,
      "Ġkerke": 9002,
      "Ġpaaie": 9003,
      "ĠOb": 9004,
      "Ġemer": 9005,
      "âĢ¦âĢ¦": 9006,
      "Ġsink": 9007,
      "aphezulu": 9008,
      "ĠBoere": 9009,
      "Ġjwa": 9010,
      "Ġoutside": 9011,
      "Ġ150": 9012,
      "ires": 9013,
      "ĠWees": 9014,
      "Ġdepress": 9015,
      "Ġago": 9016,
      "Ġhttps": 9017,
      "Ð²": 9018,
      "Ġdenke": 9019,
      "Ġyab": 9020,
      "Ġaangaan": 9021,
      "ĠGovernment": 9022,
      "Jou": 9023,
      "Ġkukho": 9024,
      "Ġdim": 9025,
      "inf": 9026,
      "epe": 9027,
      "middels": 9028,
      "Ġattended": 9029,
      "arring": 9030,
      "Ġaangekondig": 9031,
      "lywood": 9032,
      "Ġissues": 9033,
      "Ġkwakho": 9034,
      "Ġdaartoe": 9035,
      "orde": 9036,
      "Ġrate": 9037,
      "Ġwords": 9038,
      "Ġgemak": 9039,
      "ĠVirginia": 9040,
      "EG": 9041,
      "Ġimplement": 9042,
      "Ġrather": 9043,
      "Ġvoortdurend": 9044,
      "ikele": 9045,
      "ĠVill": 9046,
      "ĠShow": 9047,
      "Ġuitdagings": 9048,
      "ĠCra": 9049,
      "atus": 9050,
      "hizin": 9051,
      "anie": 9052,
      "aves": 9053,
      "amen": 9054,
      "ĠVe": 9055,
      "Ġmic": 9056,
      "Pr": 9057,
      "read": 9058,
      "Ġklassieke": 9059,
      "ĠLonden": 9060,
      "Ġcur": 9061,
      "Ġbroers": 9062,
      "Ġeziph": 9063,
      "burgh": 9064,
      "Ġwoku": 9065,
      "Ġalways": 9066,
      "Ġ39": 9067,
      "elaai": 9068,
      "Ġtoday": 9069,
      "itive": 9070,
      "Ġfore": 9071,
      "Ġizim": 9072,
      "ĠJood": 9073,
      "ĠHot": 9074,
      "ĠSteve": 9075,
      "Ġvisit": 9076,
      "ĠZealand": 9077,
      "ĠVerk": 9078,
      "stell": 9079,
      "Ġamag": 9080,
      "ĠNaam": 9081,
      "ĠNjeng": 9082,
      "gewerk": 9083,
      "fonds": 9084,
      "Ġbuur": 9085,
      "Ġmasjien": 9086,
      "ĠAwards": 9087,
      "Ġwriting": 9088,
      "ĠBern": 9089,
      "allo": 9090,
      "Ġoefening": 9091,
      "ĠCarl": 9092,
      "Ġkanti": 9093,
      "Ġpurch": 9094,
      "Ġdankbaar": 9095,
      "ĠWindows": 9096,
      "Ġgetref": 9097,
      "Ġelik": 9098,
      "Ġcandid": 9099,
      "Ġcit": 9100,
      "FL": 9101,
      "Ġsale": 9102,
      "Ġmyn": 9103,
      "Ġkunjalo": 9104,
      "67": 9105,
      "ĠTwo": 9106,
      "Ġnormale": 9107,
      "ĠKim": 9108,
      "Ġsilwer": 9109,
      "Ma": 9110,
      "Ġgelaat": 9111,
      "Ġlika": 9112,
      "Ġgif": 9113,
      "ibility": 9114,
      "bleme": 9115,
      "Ġsamewerking": 9116,
      "sex": 9117,
      "Äģ": 9118,
      "ĠNadat": 9119,
      "igs": 9120,
      "ĠAustraliÃ«": 9121,
      "ĠâĨĴ": 9122,
      "ĠBat": 9123,
      "Ġkubo": 9124,
      "Ġbeb": 9125,
      "Bes": 9126,
      "ĠForce": 9127,
      "roog": 9128,
      "Ġonmoontlik": 9129,
      "spro": 9130,
      "Ġkuze": 9131,
      "Ġaangem": 9132,
      "Ġinteressant": 9133,
      "Ġsuster": 9134,
      "Ġforce": 9135,
      "Ġphot": 9136,
      "Ġkarakters": 9137,
      "Ġcut": 9138,
      "astiese": 9139,
      "Ġcivil": 9140,
      "ishe": 9141,
      "yde": 9142,
      "verg": 9143,
      "ï»": 9144,
      "ĠBoard": 9145,
      "Ġoors": 9146,
      "Ġingestel": 9147,
      "gestaan": 9148,
      "Ġkwim": 9149,
      "ĠOtt": 9150,
      "moord": 9151,
      "Laat": 9152,
      "Ġroo": 9153,
      "Ġaangestel": 9154,
      "iple": 9155,
      "Ġmeel": 9156,
      "ĠDag": 9157,
      "ĠOost": 9158,
      "enu": 9159,
      "Ġcelebr": 9160,
      "Ġknop": 9161,
      "Ġigama": 9162,
      "ĠGood": 9163,
      "ĠFestival": 9164,
      "ĠWas": 9165,
      "Ġaanwyser": 9166,
      "ysis": 9167,
      "Ġnormaal": 9168,
      "ĠBelg": 9169,
      "ĠFX": 9170,
      "ekering": 9171,
      "Ġcall": 9172,
      "unie": 9173,
      "Ġfab": 9174,
      "ĠNels": 9175,
      "lof": 9176,
      "uning": 9177,
      "Ġtoege": 9178,
      "Ġongem": 9179,
      "Ġunderst": 9180,
      "erstens": 9181,
      "Elke": 9182,
      "ĠPower": 9183,
      "ĠAv": 9184,
      "ĠLord": 9185,
      "Ġbinnekort": 9186,
      "ĠJord": 9187,
      "Ġdone": 9188,
      "Ġmanagement": 9189,
      "Ġverlig": 9190,
      "Ġadvan": 9191,
      "ĠResearch": 9192,
      "Ġpersoonlik": 9193,
      "ĠStuur": 9194,
      "ĠeM": 9195,
      "Ġtoepas": 9196,
      "Ġgrand": 9197,
      "organis": 9198,
      "ĠUs": 9199,
      "Ġgetrek": 9200,
      "Ġfunksion": 9201,
      "Ġ<": 9202,
      "offers": 9203,
      "PA": 9204,
      "imba": 9205,
      "Ġru": 9206,
      "ĠGre": 9207,
      "platform": 9208,
      "Ġnetwerk": 9209,
      "Ġweight": 9210,
      "ĠInternet": 9211,
      "Ġaccept": 9212,
      "Ġiny": 9213,
      "Ġengu": 9214,
      "Ġoptim": 9215,
      "Ġheerlik": 9216,
      "Ġproperty": 9217,
      "hlop": 9218,
      "ĠArts": 9219,
      "ĠThat": 9220,
      "iles": 9221,
      "oppel": 9222,
      "HL": 9223,
      "Ġreplaced": 9224,
      "Ġalhoewel": 9225,
      "kuns": 9226,
      "ineering": 9227,
      "ĠSet": 9228,
      "ï»¿": 9229,
      "ekteer": 9230,
      "orius": 9231,
      "ĠMr": 9232,
      "Ġgesterf": 9233,
      "ishop": 9234,
      "Ġcourse": 9235,
      "raam": 9236,
      "anyana": 9237,
      "Ġreached": 9238,
      "Ġlegal": 9239,
      "eph": 9240,
      "Ġngokub": 9241,
      "afa": 9242,
      "Ġhau": 9243,
      "Ġanalise": 9244,
      "Ġ1988": 9245,
      "stro": 9246,
      "Ġbrought": 9247,
      "beurs": 9248,
      "Ġevangelie": 9249,
      "ulf": 9250,
      "ĠLouw": 9251,
      "Ġspirit": 9252,
      "Ġvorentoe": 9253,
      "kle": 9254,
      "Ġkers": 9255,
      "ĠDeel": 9256,
      "Ġalmost": 9257,
      "Ġcam": 9258,
      "ĠHosp": 9259,
      "Ġ1986": 9260,
      "Ġhours": 9261,
      "ught": 9262,
      "ikhiqizo": 9263,
      "Ġ44": 9264,
      "Ġeduc": 9265,
      "Ġthought": 9266,
      "Ġespecially": 9267,
      "ĠTa": 9268,
      "Ġtevrede": 9269,
      "Ġoorlede": 9270,
      "Ġestablish": 9271,
      "lug": 9272,
      "Ġfeta": 9273,
      "Ġcommercial": 9274,
      "Ġalready": 9275,
      "Ġelemente": 9276,
      "ĠEskom": 9277,
      "Ġgelewer": 9278,
      "ekom": 9279,
      "ĠFlorida": 9280,
      "rans": 9281,
      "Ġstukke": 9282,
      "Ġfourth": 9283,
      "Ġtoenem": 9284,
      "erale": 9285,
      "Ġbepl": 9286,
      "Ġtoerusting": 9287,
      "rice": 9288,
      "Ġafhang": 9289,
      "Sep": 9290,
      "Ġeetle": 9291,
      "ĠEK": 9292,
      "ĠBad": 9293,
      "ielie": 9294,
      "ekileyo": 9295,
      "Ñĭ": 9296,
      "hobo": 9297,
      "Nov": 9298,
      "Ġmaan": 9299,
      "ENT": 9300,
      "ondering": 9301,
      "ios": 9302,
      "antle": 9303,
      "roeg": 9304,
      "ĠSien": 9305,
      "Ġneigh": 9306,
      "Ġaccording": 9307,
      "Moenie": 9308,
      "Ġprincip": 9309,
      "zek": 9310,
      "Ġinskry": 9311,
      "velo": 9312,
      "Vers": 9313,
      "........": 9314,
      "brief": 9315,
      "Ġpogings": 9316,
      "otland": 9317,
      "Ġdocument": 9318,
      "Ġwhose": 9319,
      "ĠFootball": 9320,
      "hulu": 9321,
      "Ġgram": 9322,
      "ĠGrond": 9323,
      "Ġmetodes": 9324,
      "ĠOud": 9325,
      "Ġstaff": 9326,
      "ĠAlbert": 9327,
      "ilung": 9328,
      "Ġund": 9329,
      "Ġ42": 9330,
      "ĠFer": 9331,
      "ateriaal": 9332,
      "ĠJean": 9333,
      "Ġbem": 9334,
      "ĠJim": 9335,
      "verhaal": 9336,
      "ĠUng": 9337,
      "huise": 9338,
      "Ġhab": 9339,
      "Ġverkeer": 9340,
      "enburg": 9341,
      "genoot": 9342,
      "Ġngokuba": 9343,
      "jp": 9344,
      "hiwe": 9345,
      "Ġvoeding": 9346,
      "alelo": 9347,
      "Ġkompetisie": 9348,
      "Ġwonderlik": 9349,
      "Ġprentjie": 9350,
      "Ġlente": 9351,
      "Ġokw": 9352,
      "ĠArm": 9353,
      "Ġgestaan": 9354,
      "ĠLit": 9355,
      "ĠMakelaars": 9356,
      "MA": 9357,
      "ĠLine": 9358,
      "Phone": 9359,
      "rass": 9360,
      "leet": 9361,
      "ĠUN": 9362,
      "veliso": 9363,
      "waardige": 9364,
      "handeling": 9365,
      "heim": 9366,
      "ĠHarr": 9367,
      "ĠAma": 9368,
      "Ġfoun": 9369,
      "Ġsodra": 9370,
      "ledge": 9371,
      "Ġcompetition": 9372,
      "Ġstede": 9373,
      "aa": 9374,
      "ifo": 9375,
      "esie": 9376,
      "yv": 9377,
      "heg": 9378,
      "ĠIb": 9379,
      "ĠÂ°": 9380,
      "Ġmedisyne": 9381,
      "Ġlokela": 9382,
      "likasies": 9383,
      "Ġskenk": 9384,
      "ĠAndrew": 9385,
      "ques": 9386,
      "Ġov": 9387,
      "Ġfriends": 9388,
      "Ġevalu": 9389,
      "ĠDik": 9390,
      "ĠJournal": 9391,
      "ĠLi": 9392,
      "Ġyet": 9393,
      "Ġube": 9394,
      "uffel": 9395,
      "Ġread": 9396,
      "Ġinderdaad": 9397,
      "ĠRusland": 9398,
      "ryw": 9399,
      "enteer": 9400,
      "Ġintens": 9401,
      "stud": 9402,
      "hosa": 9403,
      "eless": 9404,
      "ĠBath": 9405,
      "box": 9406,
      "PD": 9407,
      "uer": 9408,
      "ĠHor": 9409,
      "ĠsteroÃ¯": 9410,
      "igaba": 9411,
      "Ġvermaak": 9412,
      "ĠBud": 9413,
      "Ġcontact": 9414,
      "Ġbeelde": 9415,
      "Ġenvironment": 9416,
      "ĠJulle": 9417,
      "oorn": 9418,
      "Ġsous": 9419,
      "Nog": 9420,
      "erous": 9421,
      "vels": 9422,
      "ĠDurban": 9423,
      "Ġwo": 9424,
      "overs": 9425,
      "Ġdivid": 9426,
      "Ġnaak": 9427,
      "Ġgeskied": 9428,
      "Ġweers": 9429,
      "61": 9430,
      "Ġtowards": 9431,
      "Ġking": 9432,
      "Ġthus": 9433,
      "gaande": 9434,
      "69": 9435,
      "Ġgebeurtenis": 9436,
      "ĠCode": 9437,
      "Suid": 9438,
      "Ġuitdaging": 9439,
      "ĠVandag": 9440,
      "Ġkwart": 9441,
      "uya": 9442,
      "Ġzakhe": 9443,
      "Ġskepping": 9444,
      "Ġhulpbronne": 9445,
      "verse": 9446,
      "Ġplaced": 9447,
      "Ġgevorder": 9448,
      "Ġsystems": 9449,
      "onent": 9450,
      "lid": 9451,
      "Ġ1987": 9452,
      "Ġradi": 9453,
      "ĠDink": 9454,
      "Ġjalo": 9455,
      "ĠApple": 9456,
      "Ġintroduced": 9457,
      "Ġklop": 9458,
      "Ġoortr": 9459,
      "Ġkenmerk": 9460,
      "ĠHuman": 9461,
      "theth": 9462,
      "hizinisi": 9463,
      "Ġwese": 9464,
      "Ġunit": 9465,
      "atic": 9466,
      "iligheid": 9467,
      "amera": 9468,
      "Ġkwessie": 9469,
      "Ġmovie": 9470,
      "gewone": 9471,
      "2015": 9472,
      "ĠJacob": 9473,
      "ĠJoe": 9474,
      "Ġngob": 9475,
      "Ġoorsaak": 9476,
      "Ġukusebenza": 9477,
      "Ġfloor": 9478,
      "ĠGet": 9479,
      "Ġfif": 9480,
      "retary": 9481,
      "appe": 9482,
      "spe": 9483,
      "Ġrequired": 9484,
      "ĠTro": 9485,
      "Ġdigter": 9486,
      "\"),": 9487,
      "Ġtraditional": 9488,
      "owjob": 9489,
      "ĠOnthou": 9490,
      "ĠJohnson": 9491,
      "umber": 9492,
      "Ġcenter": 9493,
      "Ġkla": 9494,
      "Ġamas": 9495,
      "road": 9496,
      "star": 9497,
      "hit": 9498,
      "Ġelement": 9499,
      "iljoen": 9500,
      "worth": 9501,
      "Ġchall": 9502,
      "ĠOpsies": 9503,
      "ulture": 9504,
      "Ġstres": 9505,
      "63": 9506,
      "gelukkig": 9507,
      "Ġbronne": 9508,
      "ĠRussiese": 9509,
      "Ġtelefoon": 9510,
      "ĠAS": 9511,
      "Ġmaterial": 9512,
      "Ġumntu": 9513,
      "Ġ75": 9514,
      "ienaar": 9515,
      "oern": 9516,
      "Ġkonsent": 9517,
      "Ġaangedui": 9518,
      "Im": 9519,
      "aier": 9520,
      "Ġsond": 9521,
      "Ġulwazi": 9522,
      "Ġgeheel": 9523,
[...]
